{
  "vocab": {
    "0": "\n",
    "1": " ",
    "2": "!",
    "3": "\"",
    "4": "#",
    "5": "$",
    "6": "%",
    "7": "&",
    "8": "'",
    "9": "(",
    "10": ")",
    "11": "*",
    "12": "+",
    "13": ",",
    "14": "-",
    "15": ".",
    "16": "/",
    "17": "0",
    "18": "1",
    "19": "2",
    "20": "3",
    "21": "4",
    "22": "5",
    "23": "6",
    "24": "7",
    "25": "8",
    "26": "9",
    "27": ":",
    "28": "?",
    "29": "@",
    "30": "A",
    "31": "B",
    "32": "C",
    "33": "D",
    "34": "E",
    "35": "F",
    "36": "G",
    "37": "H",
    "38": "I",
    "39": "J",
    "40": "K",
    "41": "L",
    "42": "M",
    "43": "N",
    "44": "O",
    "45": "P",
    "46": "Q",
    "47": "R",
    "48": "S",
    "49": "T",
    "50": "U",
    "51": "V",
    "52": "W",
    "53": "X",
    "54": "Y",
    "55": "Z",
    "56": "[",
    "57": "\\",
    "58": "]",
    "59": "_",
    "60": "`",
    "61": "a",
    "62": "b",
    "63": "c",
    "64": "d",
    "65": "e",
    "66": "f",
    "67": "g",
    "68": "h",
    "69": "i",
    "70": "j",
    "71": "k",
    "72": "l",
    "73": "m",
    "74": "n",
    "75": "o",
    "76": "p",
    "77": "q",
    "78": "r",
    "79": "s",
    "80": "t",
    "81": "u",
    "82": "v",
    "83": "w",
    "84": "x",
    "85": "y",
    "86": "z",
    "87": "|",
    "88": "~",
    "89": " ",
    "90": "­",
    "91": "°",
    "92": "»",
    "93": "¼",
    "94": "½",
    "95": "À",
    "96": "Á",
    "97": "Ç",
    "98": "Õ",
    "99": "à",
    "100": "ì",
    "101": "ï",
    "102": "ó",
    "103": "ʰ",
    "104": "Χ",
    "105": "Ψ",
    "106": "॥",
    "107": "ಂ",
    "108": "ಃ",
    "109": "ಅ",
    "110": "ಆ",
    "111": "ಇ",
    "112": "ಈ",
    "113": "ಉ",
    "114": "ಊ",
    "115": "ಋ",
    "116": "ಎ",
    "117": "ಏ",
    "118": "ಐ",
    "119": "ಒ",
    "120": "ಓ",
    "121": "ಔ",
    "122": "ಕ",
    "123": "ಖ",
    "124": "ಗ",
    "125": "ಘ",
    "126": "ಚ",
    "127": "ಛ",
    "128": "ಜ",
    "129": "ಝ",
    "130": "ಞ",
    "131": "ಟ",
    "132": "ಠ",
    "133": "ಡ",
    "134": "ಢ",
    "135": "ಣ",
    "136": "ತ",
    "137": "ಥ",
    "138": "ದ",
    "139": "ಧ",
    "140": "ನ",
    "141": "ಪ",
    "142": "ಫ",
    "143": "ಬ",
    "144": "ಭ",
    "145": "ಮ",
    "146": "ಯ",
    "147": "ರ",
    "148": "ಲ",
    "149": "ಳ",
    "150": "ವ",
    "151": "ಶ",
    "152": "ಷ",
    "153": "ಸ",
    "154": "ಹ",
    "155": "಼",
    "156": "ಾ",
    "157": "ಿ",
    "158": "ೀ",
    "159": "ು",
    "160": "ೂ",
    "161": "ೃ",
    "162": "ೆ",
    "163": "ೇ",
    "164": "ೈ",
    "165": "ೊ",
    "166": "ೋ",
    "167": "ೌ",
    "168": "್",
    "169": "ೕ",
    "170": "ೖ",
    "171": "೦",
    "172": "೧",
    "173": "೨",
    "174": "೩",
    "175": "೪",
    "176": "೫",
    "177": "೬",
    "178": "೭",
    "179": "​",
    "180": "‌",
    "181": "‍",
    "182": "‏",
    "183": "–",
    "184": "—",
    "185": "‘",
    "186": "’",
    "187": "“",
    "188": "”",
    "189": "…",
    "190": "⁠",
    "191": "₹",
    "192": "▪",
    "193": "►",
    "194": "♦",
    "195": "ು ",
    "196": "\n\n",
    "197": ".\n\n",
    "198": "ೆ ",
    "199": "ಿ ",
    "200": "ಲ್",
    "201": "ತ್",
    "202": "ಿದ",
    "203": "ನ್",
    "204": "ಾರ",
    "205": "ಲ್ಲ",
    "206": "ಾಗ",
    "207": "ಂದ",
    "208": "್ರ",
    "209": "ತ್ತ",
    "210": "ನ್ನ",
    "211": "ಿಸ",
    "212": "ಕ್",
    "213": "ಗಳ",
    "214": "ಸ್",
    "215": "ರ್",
    "216": " ಮ",
    "217": "ೆ.\n\n",
    "218": "್ಯ",
    "219": "್ದ",
    "220": " ಸ",
    "221": "ನ್ನು ",
    "222": " ಕ",
    "223": "ರು",
    "224": "ಗೆ ",
    "225": "ಿಯ",
    "226": "ೆಯ",
    "227": " ಪ",
    "228": "ಲ್ಲಿ ",
    "229": "ಿದ್ದ",
    "230": " ಅ",
    "231": " ನ",
    "232": "ವಿ",
    "233": "ಿಕ",
    "234": "ವರ",
    "235": "್ಟ",
    "236": " ಬ",
    "237": " ಹ",
    "238": "ಮಾ",
    "239": "ುವ",
    "240": "ುತ್ತ",
    "241": "ುದ",
    "242": "ಕ್ಕ",
    "243": "ರಿ",
    "244": "ು.\n\n",
    "245": ", ",
    "246": "ಾನ",
    "247": "ಂಡ",
    "248": "ನಿ",
    "249": "ಿದೆ.\n\n",
    "250": "ಂತ",
    "251": "ಂದು ",
    "252": "ರಾ",
    "253": "ಇದ",
    "254": "ವಾ",
    "255": "ವಾಗ",
    "256": "ಪ್ರ",
    "257": " ಆ",
    "258": "ಕ್ಷ",
    "259": "ಾವ",
    "260": "ಾಯ",
    "261": "ತ್ತು ",
    "262": "ಿತ",
    "263": " ಎ",
    "264": "ರು ",
    "265": "ತ್ರ",
    "266": "ಿನ",
    "267": " ಪ್ರ",
    "268": "ರು.\n\n",
    "269": "ಿದ್ದಾರ",
    "270": "ಿಗೆ ",
    "271": "ಮ್",
    "272": "ಟ್ಟ",
    "273": "ದಲ್ಲಿ ",
    "274": "ಿಲ್ಲ",
    "275": "ಂಬ",
    "276": "ಂಗ",
    "277": " ತ",
    "278": "ದರ",
    "279": "ಷ್ಟ",
    "280": " ದ",
    "281": " ವ",
    "282": "ಗಳು ",
    "283": "ಕ್ಕೆ ",
    "284": " ವಿ",
    "285": "?\n\n",
    "286": "ಿರು",
    "287": "ಾಡ",
    "288": "ೇಕ",
    "289": "ಿದ್ದಾರೆ.\n\n",
    "290": "ಕಾರ",
    "291": "ಟ್",
    "292": "ಿಂದ",
    "293": "ಮ್ಮ",
    "294": "ಾದ",
    "295": "ತಿ",
    "296": "ಾಲ",
    "297": "ಾರ್",
    "298": "ಮಾಡ",
    "299": "ೇಳ",
    "300": " ಗ",
    "301": "ಲಾಗ",
    "302": "ಬ್",
    "303": "ಲು ",
    "304": "ವು ",
    "305": "ಗಳನ್ನು ",
    "306": " ಇ",
    "307": "ೇಶ",
    "308": " ಜ",
    "309": "ಾಗಿ ",
    "310": "ಚ್",
    "311": "ಳ್",
    "312": "ಿವ",
    "313": "ವನ್ನು ",
    "314": " ರ",
    "315": "ಳ್ಳ",
    "316": "ವರು ",
    "317": "ಪ್",
    "318": "ೊಂಡ",
    "319": "ೆದ",
    "320": "ಸ್ಥ",
    "321": "ಿರುವ",
    "322": "ನೀ",
    "323": "ಬೇಕ",
    "324": "ಕರ",
    "325": "ಿಸಿದ",
    "326": "ುವುದ",
    "327": "ಿಲ್ಲ.\n\n",
    "328": " ಮತ್ತು ",
    "329": "ಮತ್ತು ",
    "330": "ೆಲ",
    "331": "ಮು",
    "332": "ಚ್ಚ",
    "333": "ಕಾ",
    "334": "ೆಗೆ ",
    "335": "ೆ\n\n",
    "336": "ಧ್ಯ",
    "337": "ುಕ",
    "338": "ಡ್",
    "339": "ನು ",
    "340": " ಮಾಡ",
    "341": "ಆದರ",
    "342": " ಯ",
    "343": "ಿಗ",
    "344": " ಚ",
    "345": "ತ್ಯ",
    "346": "ೆ ಎ",
    "347": " ಶ",
    "348": "ನಾ",
    "349": "ಿರ",
    "350": " ಭ",
    "351": "ರಾಜ",
    "352": "ವಾಗಿ ",
    "353": "ಶ್",
    "354": "್ಯಾ",
    "355": "ಬಿ",
    "356": "ಇದು ",
    "357": "ಸಾ",
    "358": " ನಿ",
    "359": "್ಧ",
    "360": "ಗ್",
    "361": "ೋಗ",
    "362": "ಬ್ಬ",
    "363": "ರಿಸ",
    "364": "ಿತ್ತ",
    "365": "ಬಹ",
    "366": "ೊ",
    "367": "ನು",
    "368": "ಡಿ",
    "369": "ೇವ",
    "370": "ಲೀ",
    "371": "ಾರತ",
    "372": " ಉ",
    "373": "ಹೇಳ",
    "374": "ೆಗ",
    "375": "ತಿ ",
    "376": "ೆಚ್ಚ",
    "377": "ುತ್ತದ",
    "378": "ಪಡ",
    "379": "ಂಧ",
    "380": "ೊಂದ",
    "381": "ಅದ",
    "382": "ೊಳ್ಳ",
    "383": "ೆಯಲ್ಲಿ ",
    "384": "ನಾವ",
    "385": "ನೆ ",
    "386": "ೀಯ",
    "387": " ಮು",
    "388": "ಲಿ",
    "389": " ಸ್",
    "390": "ಸ್ತ",
    "391": "ೆಗಳ",
    "392": "ಆದರೆ ",
    "393": "ಯಾ",
    "394": "ಾಗೂ",
    "395": "ೆಸ",
    "396": "ಕ್ರ",
    "397": " ಒ",
    "398": " ಸಂ",
    "399": " ಕಾರ",
    "400": "ಂಗ್",
    "401": "ತಿಯ",
    "402": "ನಡ",
    "403": "ದೇಶ",
    "404": "ಸಂ",
    "405": "ೆಯನ್ನು ",
    "406": "ಜೆ",
    "407": "ಅವರ",
    "408": "ಳಿಸ",
    "409": "ಸಿ",
    "410": "ಅವ",
    "411": "\"\"",
    "412": "ಲ್ಲ.\n\n",
    "413": "ಿತ್ತು.\n\n",
    "414": "ೊಲೀ",
    "415": "ಪ್ಪ",
    "416": "ವಾದ",
    "417": " ಕು",
    "418": "ರಿಂದ",
    "419": "ೇ",
    "420": "ೇರ",
    "421": "ಾನು ",
    "422": "ನ್ಯ",
    "423": "ಸು",
    "424": "ಜನ",
    "425": "ಿದ್ದರು.\n\n",
    "426": "ತನ",
    "427": "ಧಾನ",
    "428": " ಸಿ",
    "429": "ೇಲ",
    "430": "ನೀಡ",
    "431": " ಸಾ",
    "432": "ೂಡ",
    "433": "ಗ್ಗೆ ",
    "434": "ದ್ದ",
    "435": " ಎಂದು ",
    "436": "ಲಾ",
    "437": "ೆಸ್",
    "438": "ು\n\n",
    "439": "ರೂ",
    "440": "ದಲ್ಲ",
    "441": "ಂದ್ರ",
    "442": "ೂಲ",
    "443": "ವೇ",
    "444": "ರೋ",
    "445": "ಂತೆ ",
    "446": "ದ್ಧ",
    "447": "ಬಹುದ",
    "448": "ಿಗಳ",
    "449": "ಣ್",
    "450": "ಜ್",
    "451": "ೆ ಎಂದು ",
    "452": "ಾಕ",
    "453": "ು ಹ",
    "454": "ೆರ",
    "455": " ಲ",
    "456": "ಅವರು ",
    "457": " 1",
    "458": "ೇನ",
    "459": " ಮಾ",
    "460": "ಚಿ",
    "461": "ತೆ ",
    "462": " ಬಗ್ಗೆ ",
    "463": "ಜೆಪ",
    "464": "ಭಾರತ",
    "465": "ಿಸುತ್ತ",
    "466": "ಖ್ಯ",
    "467": "ು,",
    "468": "ೆ,",
    "469": "ುತ್ತದೆ.\n\n",
    "470": "ಂತರ",
    "471": "ತರ",
    "472": "ುಗ",
    "473": " ನೀ",
    "474": "ಲಾಗಿದೆ.\n\n",
    "475": "ಕರಣ",
    "476": "ೆಹ",
    "477": "ೊರ",
    "478": "ಿಕೊಂಡ",
    "479": "ಗಳಲ್ಲಿ ",
    "480": " ಸಮ",
    "481": "ಯಾವ",
    "482": "ು, ",
    "483": "ೆ, ",
    "484": "ಟಿ ",
    "485": "ಮನ",
    "486": "ಕು",
    "487": "ೋದ",
    "488": "ಯಾರ",
    "489": " ಟ",
    "490": "ಮಾನ",
    "491": "ದಿಂದ",
    "492": "ೂರ್",
    "493": "ಿಸಿ ",
    "494": "ಸ್ಪ",
    "495": "ರಿಗೆ ",
    "496": "ಹಿ",
    "497": "ಷ್ಟು ",
    "498": "ವನ",
    "499": " ಬಿ",
    "500": "ರ್ಕಾರ",
    "501": "00",
    "502": "ನ್ನೂ",
    "503": "ರ್ಥ",
    "504": "ಿತು.\n\n",
    "505": "ಂತ್ರ",
    "506": " ಅವರ",
    "507": "ನಾನು ",
    "508": "ಣೆ ",
    "509": " ಫ",
    "510": " ಈ",
    "511": "ಿ.\n\n",
    "512": "ೆಯಾಗ",
    "513": "ಿವೆ.\n\n",
    "514": "ಲೇ",
    "515": "ುರ",
    "516": "ರಾಜ್ಯ",
    "517": " ನಡ",
    "518": "ಿಸುವ",
    "519": "ಬೆ",
    "520": "ನ್‌",
    "521": "ರುವ",
    "522": "ಂಗ್ರ",
    "523": "ಕ್ತ",
    "524": "ಕೆಲ",
    "525": "ಿಸ್",
    "526": "ಧಿಕ",
    "527": "ಧ್ಯಕ್ಷ",
    "528": "ೊಲೀಸ",
    "529": "ಾಳ",
    "530": "ರೆ ",
    "531": "್ರಾ",
    "532": "ಸ್‌",
    "533": "ದ್ಯ",
    "534": "ಂಭ",
    "535": "ಂಟ",
    "536": "ಿಸಿದರು.\n\n",
    "537": "ಿ ಸ",
    "538": "ಷ್",
    "539": "ಕೊ",
    "540": "ರ್‌",
    "541": "ಕೆ",
    "542": "ತಾ",
    "543": " ಮೇಲ",
    "544": "ನೇ",
    "545": "ೇಂದ್ರ",
    "546": "ಎಲ್ಲ",
    "547": " ಹಾಗೂ",
    "548": "ನಾವು ",
    "549": "ಗು",
    "550": "ಸ್ಯ",
    "551": "ಿಯಾ",
    "552": "ಂಕ",
    "553": "ರಡ",
    "554": "ಚಾರ",
    "555": " ಸ್ಥ",
    "556": ". ",
    "557": "ವಹ",
    "558": "ನೋ",
    "559": "ಾಸ",
    "560": "ುಗಳ",
    "561": "ದಲ",
    "562": "ನಲ್ಲಿ ",
    "563": "ಮಿ",
    "564": "ಾಖ",
    "565": "ಎಂದು ",
    "566": "ಿದರು.\n\n",
    "567": "ಬೇಕು.\n\n",
    "568": "ಮಾರ",
    "569": "ಕ್ಷಣ",
    "570": "ಣ್ಣ",
    "571": "ಿಕೊಳ್ಳ",
    "572": "ಿಯಾಗ",
    "573": "ಂಗ್ರೆಸ್",
    "574": "ಿಯನ್ನು ",
    "575": "ೂರ",
    "576": "ೂರು ",
    "577": "ಲ್‌",
    "578": "ಂಚ",
    "579": "ು?\n\n",
    "580": "ಿ,",
    "581": "ವರ್",
    "582": "ಿ ಹ",
    "583": "ಿಯಲ್ಲಿ ",
    "584": " ನಿರ್",
    "585": "ನಿರ್",
    "586": "ೆದುಕ",
    "587": "ಯ್",
    "588": " ಆಗ",
    "589": "ದೇ",
    "590": "ಬ್ಬ್",
    "591": "ಾಣ",
    "592": " ವ್ಯ",
    "593": "ಬಿಜೆಪ",
    "594": "ೆ?\n\n",
    "595": "ುಂಬ",
    "596": "ಒಂದು ",
    "597": "ಂಪ",
    "598": " ಕ್ರ",
    "599": "ೆ ಮಾಡ",
    "600": "ಿ, ",
    "601": "ಆಗ",
    "602": "ಲಿಲ್ಲ.\n\n",
    "603": "ಿಸಲು ",
    "604": "ುದೇ",
    "605": " ಕೋ",
    "606": "ಪಾ",
    "607": "ನಮ್ಮ",
    "608": "ರಿತ",
    "609": "ರಣ",
    "610": "ೆಲ್ಲ",
    "611": "ಹೆಚ್ಚ",
    "612": "ಡ್ಡ",
    "613": "ಬಂದ",
    "614": "ಕರ್",
    "615": "ರೀ",
    "616": " ಇದ",
    "617": "ಾರಿ ",
    "618": " ಕಾರ್ಯ",
    "619": " ಮೂಲ",
    "620": "ಿದ್ಯ",
    "621": "ೆಗಳನ್ನು ",
    "622": "ರುತ್ತ",
    "623": "ಸಹ",
    "624": "ಗೊಂಡ",
    "625": " ಡ",
    "626": "ಿಗಳು ",
    "627": " ಅವ",
    "628": "ಾಪ",
    "629": "ಂಜ",
    "630": ": ",
    "631": "ುವುದು ",
    "632": "ಿಯೂ",
    "633": "ಮಗೆ ",
    "634": "ೊಂದಿಗೆ ",
    "635": "!\n\n",
    "636": "ಟಿ",
    "637": "ಳಿದ",
    "638": "ಿದೆ\n\n",
    "639": "ಹಾರ",
    "640": "ಾರ್ಥ",
    "641": "ಘಟ",
    "642": "ಪರಿ",
    "643": "ಫ್",
    "644": "ವಾಗಿದೆ.\n\n",
    "645": "20",
    "646": "ಉತ್ತ",
    "647": "ಹು",
    "648": "\"\n\n",
    "649": " ಚಿ",
    "650": "ಂಬಂಧ",
    "651": " ಖ",
    "652": "ಿಸಲಾಗ",
    "653": "ಪಟ್ಟ",
    "654": " ಕೆಲ",
    "655": "ರುದ್ಧ",
    "656": "ಿ ಅ",
    "657": "ಮೀ",
    "658": "ೆಗಳು ",
    "659": " ಅಭ",
    "660": " ಬಳ",
    "661": " ಏ",
    "662": " ಮೇಲೆ ",
    "663": " ರಾ",
    "664": " ಜನ",
    "665": "ಥವಾ",
    "666": ":\n\n",
    "667": "ೊಲೀಸರು ",
    "668": "ೀರ್",
    "669": " ಕೊ",
    "670": "ಷ್ಟ್ರ",
    "671": "ತ್ವ",
    "672": "ಬೇ",
    "673": "ಮಾರ್",
    "674": " ಭಾರತ",
    "675": "ಾರೆ.\n\n",
    "676": "ೋ",
    "677": "ಪೂರ್",
    "678": "ನಿಮ್ಮ",
    "679": "ಿಕೆ ",
    "680": " ಹೇಳ",
    "681": "ಾಯಕ",
    "682": "ಕ್ಕಳ",
    "683": "ಶಿ",
    "684": "ಸಮ",
    "685": "ಲಿ ",
    "686": "ಟ್‌",
    "687": "ಪು",
    "688": "ವೆ",
    "689": "ಮುಂದ",
    "690": "ಶ್ರ",
    "691": "ಸರ",
    "692": "ದು",
    "693": "ಂಶ",
    "694": "ಾಮ",
    "695": "ನಡೆಸ",
    "696": "ುತ್ತಿದೆ.\n\n",
    "697": "ಸಾಧ್ಯ",
    "698": "ಷಯ",
    "699": "ಯೋ",
    "700": " ಹೆಚ್ಚ",
    "701": "ದೆ ",
    "702": "ಿ\n\n",
    "703": "ಹಿತ",
    "704": " ಸು",
    "705": "ೊಸ",
    "706": "ಭಾಗ",
    "707": "ಿ ಮ",
    "708": "ಿಸಿದ್ದಾರೆ.\n\n",
    "709": " ಮೊ",
    "710": "ಎಸ್",
    "711": "ಲೂ",
    "712": "ಕೋ",
    "713": "ಗೊ",
    "714": "ಗಳಿಗೆ ",
    "715": "ಂದರು.\n\n",
    "716": "ಡಿಯ",
    "717": "ಟ್ರ",
    "718": "ಕೆ ",
    "719": "ಡುಗ",
    "720": " ಪು",
    "721": " ಸಹ",
    "722": "ವೂ",
    "723": "ಂಗಳ",
    "724": "ಕ್ಕಾಗಿ ",
    "725": "ಭಾ",
    "726": "ನಿಂದ",
    "727": "ಹೀ",
    "728": "ಕ್ರಮ",
    "729": "ತೆಯ",
    "730": "ೃತ",
    "731": "್‌",
    "732": "ಧಿಕಾರ",
    "733": "ಬಹುದು.\n\n",
    "734": "ಿದೆ ಎಂದು ",
    "735": "ಸ್ವ",
    "736": " ಚಿತ್ರ",
    "737": "ತನ್ನ",
    "738": "ದೆ.\n\n",
    "739": "ೆ.",
    "740": "ಜಿ ",
    "741": " ಮೂಲಕ",
    "742": "ಕಾಂಗ್ರೆಸ್",
    "743": "ನೀವು ",
    "744": "ಪಿ",
    "745": "ನನ",
    "746": "ಿರುವುದ",
    "747": "ಕ್ಕೂ",
    "748": " ನೀಡ",
    "749": "ತ್ಮ",
    "750": "ಭವ",
    "751": " ಗು",
    "752": "ಧಾರ",
    "753": "ೆಂದು ",
    "754": "ೋಷ",
    "755": "ಜ್ಞ",
    "756": "ನೆಯ",
    "757": "ಿಸಿದ್ದ",
    "758": "ತಿಳಿಸ",
    "759": " ವಿರುದ್ಧ",
    "760": " ಅವರು ",
    "761": "ಇಲ್ಲ",
    "762": " ಎಲ್ಲ",
    "763": " ತಿ",
    "764": "ುತ್ತಿದ್ದ",
    "765": "ಾಖಲ",
    "766": "ವಾಹ",
    "767": "ಟರ್",
    "768": "ುನಾವ",
    "769": " ದಿನ",
    "770": "ಲೆ",
    "771": "ಮೊ",
    "772": "ಗೂ",
    "773": "ಶಾ",
    "774": "ದ್",
    "775": "ಮುಖ",
    "776": "ಿರುತ್ತ",
    "777": " ಅಧ್ಯಕ್ಷ",
    "778": "ಎರಡ",
    "779": "ದು ",
    "780": "ೊಂದು ",
    "781": "ಪ್ರಕರಣ",
    "782": "ಬಳ",
    "783": "ಳೆಯ",
    "784": "ಎಂ",
    "785": "ಂಬುದ",
    "786": "ಾಗಿದೆ.\n\n",
    "787": "ಮಾಣ",
    "788": " ಬೆ",
    "789": "ಕಾರ್ಯ",
    "790": "ಿಸಲ",
    "791": "ಪ್ರಧಾನ",
    "792": "ೆಹೋ",
    "793": "ರ್ಶ",
    "794": "ಹಾಗ",
    "795": "ಶ್ವ",
    "796": "ರೋಪ",
    "797": "ಾಟ",
    "798": "ವೀ",
    "799": "ನು.\n\n",
    "800": "ಪರ್",
    "801": "ಗರ",
    "802": "ಅದು ",
    "803": "ೋಟ",
    "804": "ಶೇ",
    "805": "ಿ ನ",
    "806": " ಒಂದು ",
    "807": "ರಲ್ಲಿ ",
    "808": "ಅನ",
    "809": "ೀವ",
    "810": "ಯಾವುದೇ",
    "811": "ವು.\n\n",
    "812": " ವಿಷಯ",
    "813": "ಬರ",
    "814": "ರನ್ನು ",
    "815": "ುವರ",
    "816": "ಇದರಿಂದ",
    "817": "ಮುಖ್ಯ",
    "818": "ತಮ್ಮ",
    "819": " ಸರ್ಕಾರ",
    "820": "ವೆ.\n\n",
    "821": "ೆದುಕೊಂಡ",
    "822": "ಜಾ",
    "823": "ಚಿತ್ರ",
    "824": "ೇಶ್",
    "825": " ಕೂಡ",
    "826": "ಸ್ ",
    "827": "ಿದ್ಯಾರ್ಥ",
    "828": "ಂತಹ",
    "829": "ಗತ್ಯ",
    "830": " ಪಡ",
    "831": "ಿಸ್ತ",
    "832": "ಹೋಗ",
    "833": "ವಾರ",
    "834": " ಕುರಿತ",
    "835": "ವ್ಯ",
    "836": "ೆಯೇ",
    "837": "ತ್ನ",
    "838": "ಕ್ಷೇ",
    "839": "ನು?\n\n",
    "840": "ಿಸಿಕೊಂಡ",
    "841": "ಳಗ",
    "842": "ಿ ಮತ್ತು ",
    "843": "ನ್ಯಾಯ",
    "844": "ಅಲ್ಲ",
    "845": " ರಾಜ",
    "846": " ಕಾರಣ",
    "847": "ೀರ",
    "848": "ಸೆ",
    "849": "ಆದ",
    "850": "ನನ್ನ",
    "851": " ಕೆಲಸ",
    "852": "ವಾಸ",
    "853": "ೇನೆ.\n\n",
    "854": "ಕೂಡ",
    "855": "ಕಳ",
    "856": "ೇವೆ.\n\n",
    "857": "ಜಿ",
    "858": "ುದ್ದ",
    "859": "ಿಸಿದೆ.\n\n",
    "860": " ಕಾ",
    "861": "ಿನಲ್ಲಿ ",
    "862": " (",
    "863": "ಈ ಸ",
    "864": "ಪೊಲೀಸರು ",
    "865": "ಹಾ",
    "866": "ವಿನ",
    "867": "ಲ್ಕ",
    "868": " ಪರಿ",
    "869": "ನ್ನಡ",
    "870": "ಹೊಂದ",
    "871": "ಹಾಗೂ",
    "872": "ದಿನ",
    "873": " ಆರ",
    "874": "ಸು ",
    "875": "ೇಜ",
    "876": "ನಿಯ",
    "877": "ತೆಗ",
    "878": "ಮಂತ್ರ",
    "879": " ಪಾ",
    "880": "ಾಗಿದ್ದ",
    "881": "ಚಿವ",
    "882": "ಈ ಬಗ್ಗೆ ",
    "883": "ವೈ",
    "884": "ಟ್ಟು ",
    "885": "ೋಗ್ಯ",
    "886": " ವರ್",
    "887": "ನನಗೆ ",
    "888": "’ ಎಂದು ",
    "889": "ಸರ್ಕಾರ",
    "890": "ೇಗ",
    "891": "ಸೂ",
    "892": "ಿಸಬೇಕ",
    "893": "ಿಸಲಾಗಿದೆ.\n\n",
    "894": " ಹಿ",
    "895": " ಧ",
    "896": " ಕೈ",
    "897": " ರೂ",
    "898": " ಯೋ",
    "899": "ಯದ",
    "900": "ಲ್ಪ",
    "901": "\"\"\"",
    "902": "ನಿಖ",
    "903": "ರಾದ",
    "904": "ರ್ಭ",
    "905": "ಷ್ಯ",
    "906": "ುನಾವಣ",
    "907": "ಲೋ",
    "908": "ಾಂಧ",
    "909": "ಿಯೇ",
    "910": "ರೇ",
    "911": "ಅದನ್ನು ",
    "912": "ೋರ್",
    "913": "ಬ್ಬ್ಬ್ಬ್",
    "914": " ಕೆ",
    "915": "ದಾ",
    "916": "ರಿಕ",
    "917": " ದೇ",
    "918": "ಕೆಲಸ",
    "919": "ಬಾ",
    "920": "ಡುಗಡ",
    "921": "ರ್ಜ",
    "922": "ಿದೆ",
    "923": "ನಡೆಯ",
    "924": " ಜೊ",
    "925": " ಯಾವ",
    "926": "ಲಭ",
    "927": "ಮಾನ್ಯ",
    "928": " ಸಿಂಗ್",
    "929": "ಹಾಕ",
    "930": "ಕಾರಣ",
    "931": "ನ್ ",
    "932": "ನಿಗೆ ",
    "933": "ಪೂರ್ಣ",
    "934": "ೇಗೆ ",
    "935": "ವಿಧ",
    "936": "ಕಾಶ",
    "937": "ಆರ",
    "938": " ತಂಡ",
    "939": ", ಅ",
    "940": "ಯು",
    "941": "ಯೆಹೋ",
    "942": "ಳಿಯ",
    "943": "ಪ್ರತಿ",
    "944": "ಕಾಣ",
    "945": "ುತ್ತಾರೆ.\n\n",
    "946": "ಂಥ",
    "947": "ುಗಳನ್ನು ",
    "948": "ರವ",
    "949": "ು ಅ",
    "950": "ಶ್ನ",
    "951": "ುದ್ಧ",
    "952": "ಸಭ",
    "953": "ಹಣ",
    "954": "ಳಿತ",
    "955": " 2",
    "956": "ಂತ್",
    "957": "ಹಲ",
    "958": "ಿಕೆ",
    "959": "ಪಾಯ",
    "960": "ೋಡ",
    "961": "ಕೀಯ",
    "962": "ದರೂ",
    "963": "ಕಲ",
    "964": "ಭಿ",
    "965": "ೃಷ್ಟ",
    "966": "ೃದ್ಧ",
    "967": "ೆಯಿಂದ",
    "968": "ಇದನ್ನು ",
    "969": "ಂದರೆ ",
    "970": "ದೇಶದ",
    "971": "ನಡೆದ",
    "972": "ನೋಡ",
    "973": "ಿಸಿದ್ದರು.\n\n",
    "974": "ಮಾತ್ರ",
    "975": "ುವೆ ",
    "976": "19",
    "977": "ಸೆ ",
    "978": "ಈಗ",
    "979": "ರಿ.\n\n",
    "980": "ಮೆ",
    "981": "ನಿಮಾ",
    "982": "ೀಲ",
    "983": "ಭಾವ",
    "984": "ಬಲ",
    "985": "ಗಾರ",
    "986": "ಕ್ಷೇತ್ರ",
    "987": "ಿತರ",
    "988": "ಲಿದೆ.\n\n",
    "989": " ಪಕ್ಷ",
    "990": "ಾನ್",
    "991": "ಜಿಲ್ಲ",
    "992": " ಇಂಡ",
    "993": " ಹೊರ",
    "994": "ನಂತರ",
    "995": " ಬಿಜೆಪ",
    "996": " ಮುಖ್ಯ",
    "997": "ರೀಕ್ಷ",
    "998": "ಸ್ಪತ್ರ",
    "999": "ಷ್ಠ",
    "1000": "ಸೇ",
    "1001": "ದರ್ಶ",
    "1002": "ಮೆ ",
    "1003": " ಅನ್ನು ",
    "1004": " ರೈ",
    "1005": "ಕೇಳ",
    "1006": ", ಮ",
    "1007": "ರೈ",
    "1008": "ೊಡ್ಡ",
    "1009": "ಬ್ಬರು ",
    "1010": " ಬ್ಯಾ",
    "1011": "ಅನು",
    "1012": "ಸ್ಥಳ",
    "1013": "ವ್",
    "1014": " ಪ್ರಕರಣ",
    "1015": "ೀತ",
    "1016": "ರ್ಮ",
    "1017": "ಬಿಜೆಪಿ ",
    "1018": "ಹೇಳಿದರು.\n\n",
    "1019": "ಸಂಬಂಧ",
    "1020": "ಿಸುವುದ",
    "1021": "ಮಾಜ",
    "1022": "ಂದ್ಯ",
    "1023": "ಿತ್",
    "1024": " ಅನು",
    "1025": "ು ಎ",
    "1026": "ಅದರ",
    "1027": " ಸರ",
    "1028": "ಬಾರ",
    "1029": " -",
    "1030": "ವರದ",
    "1031": "ಗ್ರ",
    "1032": "ತ್ಪ",
    "1033": "ನೆ",
    "1034": " ನಾಯಕ",
    "1035": "ನಿಜ",
    "1036": "ತುಂಬ",
    "1037": "ಹ್",
    "1038": " ಎಂಬ",
    "1039": "ಿತಾ",
    "1040": "ಉಪ",
    "1041": "ಿದ್ದು, ",
    "1042": "ಬಂಧ",
    "1043": " ರೀ",
    "1044": "ಾಯಿತು.\n\n",
    "1045": "ಲ್ಯ",
    "1046": "ಠಾಣ",
    "1047": "ಉತ್ತರ",
    "1048": " ಕುಮಾರ್",
    "1049": "ಕ್ಯಾ",
    "1050": "ನೂ",
    "1051": "ಿದ್ಧ",
    "1052": "ಗ್ಗ",
    "1053": " ಲಕ್ಷ",
    "1054": " ಮೋದ",
    "1055": "ಂಡ್",
    "1056": " ಹೆ",
    "1057": "ದ ಸ",
    "1058": " ಹಾಗ",
    "1059": "ಳು ",
    "1060": "ಕಾಲ",
    "1061": "ೊಡ",
    "1062": "ರು\n\n",
    "1063": "ಏನು ",
    "1064": "ಟುಂಬ",
    "1065": "50",
    "1066": "ಪ್ರಕರಣ ದ",
    "1067": "ತಿಕ",
    "1068": " ಇಲ್ಲ.\n\n",
    "1069": "ಅವರಿಗೆ ",
    "1070": "ಿಗೂ",
    "1071": "ಯತ್ನ",
    "1072": "ಿಸಿ",
    "1073": "ಕೆಲವು ",
    "1074": ", ಕ",
    "1075": " ಮುಂದ",
    "1076": "ಅವನ",
    "1077": " ಅನ",
    "1078": " ಅಥವಾ",
    "1079": " ಸಮಯ",
    "1080": "ತೆಗೆ ",
    "1081": "ಇದರ",
    "1082": "ಟಕ",
    "1083": " ನಂತರ",
    "1084": "ಕ್‌",
    "1085": "ಾಲಯ",
    "1086": " 3",
    "1087": " ರಾಜ್ಯ",
    "1088": " ಕ್ರಮ",
    "1089": "ಗಾಗಿ ",
    "1090": "ಿದೆ ಎ",
    "1091": "ರಿ ",
    "1092": "ವಾಲ",
    "1093": " ಎಂದ",
    "1094": "ಪಡೆಯ",
    "1095": " ನಾನು ",
    "1096": "ತನಾಡ",
    "1097": "ಕಂಡ",
    "1098": "ವಾಹನ",
    "1099": "ಂದರ್ಭ",
    "1100": " ಪೊಲೀ",
    "1101": "ಡ್‌",
    "1102": " ಕುರಿತು ",
    "1103": "ಾವು ",
    "1104": " ನಾ",
    "1105": " ಗಾಂಧ",
    "1106": " ಸ್ಥಳ",
    "1107": "ರ್ಚ",
    "1108": "ಕರು ",
    "1109": "ಗಳು\n\n",
    "1110": "ುಗಳು ",
    "1111": " ಮಕ್ಕಳ",
    "1112": "ೀವನ",
    "1113": " ವಾ",
    "1114": "ಶಸ್",
    "1115": "ೆನ್ನ",
    "1116": "ಪಕ್ಷ",
    "1117": "ರು, ",
    "1118": "ವಸ್ಥ",
    "1119": " ಸಮಸ್ಯ",
    "1120": "ಯೋಗ",
    "1121": "ಿ ಬ",
    "1122": "ದೆಹ",
    "1123": "ವರಿಗೆ ",
    "1124": "ಕೃ",
    "1125": "ಿ ಮಾಡ",
    "1126": "ದು.\n\n",
    "1127": "್ಯೂ",
    "1128": "ಷ್ಟ್ರೀಯ",
    "1129": "ರಿಗೂ",
    "1130": "ರಾಗ",
    "1131": "ೆಗಳಲ್ಲಿ ",
    "1132": "ೇರಿದ",
    "1133": "ಿಂತ",
    "1134": " ಕೋಟಿ ",
    "1135": "ಮತ್ತ",
    "1136": "ವಿದೆ.\n\n",
    "1137": "ಶೇಷ",
    "1138": "ಮೂಲ",
    "1139": "ೆಯಲ್ಲ",
    "1140": " ಎಲ್ಲಾ",
    "1141": "ಇನ್ನೂ",
    "1142": "ಪಾಲ",
    "1143": "ಜ್ಞಾನ",
    "1144": "ಳಿಸಿದರು.\n\n",
    "1145": "ುವುದಿಲ್ಲ.\n\n",
    "1146": " ನಮ್ಮ",
    "1147": " ಪ್ರತಿ",
    "1148": "ಿವೃದ್ಧ",
    "1149": "ಮಕ್ಕಳ",
    "1150": "ಡಾ",
    "1151": "ಕೈ",
    "1152": "ಾನೂ",
    "1153": "ಾತ",
    "1154": "ಚಿತ",
    "1155": "ುತ",
    "1156": " ಇಲ್ಲ",
    "1157": "ಿಕಿತ್",
    "1158": " ವೈ",
    "1159": "ೆಯು ",
    "1160": "ಾಯಿತ",
    "1161": " ಘಟ",
    "1162": " ಹಿಂದ",
    "1163": "ತಿಳಿಸಿದ್ದಾರೆ.\n\n",
    "1164": "ಇದ್ದ",
    "1165": " ಆರೋಪ",
    "1166": "ಖಂಡ",
    "1167": "ಇರುವ",
    "1168": "ಿಯಾಗಿ ",
    "1169": "ಿಣ",
    "1170": "ದಲು ",
    "1171": "ಆರ್",
    "1172": "ನಾದ",
    "1173": "ರೇಂದ್ರ",
    "1174": " ಸಚಿವ",
    "1175": "ಕೇಂದ್ರ",
    "1176": "ಬಹಳ",
    "1177": "ಗಣ",
    "1178": "ದೇವರ",
    "1179": "ದಾಖಲ",
    "1180": " ದೇಶ",
    "1181": " ಪಂದ್ಯ",
    "1182": "ಬೈ",
    "1183": "ವನು ",
    "1184": "ನಮಗೆ ",
    "1185": "ನಾಟಕ",
    "1186": "ೇಲ್",
    "1187": "ಹೊಸ",
    "1188": "ಿರಲಿಲ್ಲ.\n\n",
    "1189": "ಿದ್ದಾರೆ\n\n",
    "1190": "ಿರುತ್ತದೆ.\n\n",
    "1191": "ಸ್ಟ",
    "1192": "ಿಸ್ತಾನ",
    "1193": " ವಿದ್ಯಾರ್ಥ",
    "1194": "ೀ",
    "1195": "ಮರ",
    "1196": "ೊಬ್ಬ",
    "1197": "ಲೆ ",
    "1198": " ಪರ",
    "1199": " ಸೆ",
    "1200": "ಶಾಲ",
    "1201": "ಿಯಾದ",
    "1202": " ಸೇವ",
    "1203": "ನಿಮಗೆ ",
    "1204": "ೆ ಸ",
    "1205": "ಯ್ಕ",
    "1206": " ಶಿ",
    "1207": " ನಲ್ಲಿ ",
    "1208": " ಭಾ",
    "1209": "ದಿ",
    "1210": "ಭಟ",
    "1211": " ಮಗ",
    "1212": " ಹೆಸ",
    "1213": " ಪ್ರಧಾನ",
    "1214": "ಭೂ",
    "1215": "ಿದ್ದು ",
    "1216": " ಬಾ",
    "1217": " ಕಾಂಗ್ರೆಸ್",
    "1218": "ುವಂತೆ ",
    "1219": "ದಸ್ಯ",
    "1220": "ಆದರೆ,",
    "1221": " ಮನ",
    "1222": "ೆದುಕೊಳ್ಳ",
    "1223": "ಆದರೆ, ",
    "1224": ". ಎ",
    "1225": " ಎರಡ",
    "1226": "ಿದೆ ",
    "1227": "ಇದಕ್ಕೆ ",
    "1228": " ಸ್ಥಾನ",
    "1229": "ರ್ಯ",
    "1230": "ಲ್ಪಟ್ಟ",
    "1231": "ದ ಅ",
    "1232": " ಕಾಲ",
    "1233": "ಇತರ",
    "1234": "ತ್ತರ",
    "1235": "ತು",
    "1236": "ಲಿಯ",
    "1237": "ಾನೆ.\n\n",
    "1238": " ಕರ್",
    "1239": "ಪಾರ",
    "1240": "ಬೆಳ",
    "1241": "ಅನೇಕ",
    "1242": " ಸ್ಟ",
    "1243": "ವಿಲ್ಲ.\n\n",
    "1244": " ಐ",
    "1245": "ಗೊಳ್ಳ",
    "1246": "ಕ್ತಿಯ",
    "1247": "ದ್ರ",
    "1248": "ಹಿಂದ",
    "1249": "ುತ್ತಿರುವ",
    "1250": " ಭಾಗ",
    "1251": "ರಿನ",
    "1252": ".\"\n\n",
    "1253": "ಗಳಿಂದ",
    "1254": "ಗೊಳಿಸ",
    "1255": " ಮಾತ",
    "1256": "ಪ್ರೀ",
    "1257": " ನಡುವೆ ",
    "1258": " ನಿಮ್ಮ",
    "1259": "ಂಗಳೂ",
    "1260": "ುಕೊಳ್ಳ",
    "1261": " ಭಾಷ",
    "1262": " ನಟ",
    "1263": "ಶ್ಯ",
    "1264": "ಗೋ",
    "1265": "ಎರಡು ",
    "1266": "ಧನ",
    "1267": "ಒಬ್ಬ",
    "1268": " ಸಿನಿಮಾ",
    "1269": "ಿಕಾ",
    "1270": "ುಕೊಂಡ",
    "1271": "ಡಿ ",
    "1272": "ುಹ",
    "1273": "ಕ್ರಿಯ",
    "1274": "ಮಾಡಿದ",
    "1275": "ಿನ್",
    "1276": "ಯಾಣ",
    "1277": "ಂಟ್",
    "1278": "ಿಕ್",
    "1279": "ಹೇಗೆ ",
    "1280": " ಮಾರ",
    "1281": "ದ ಕ",
    "1282": "ಅತ್ಯ",
    "1283": "ವನ್ನ",
    "1284": " ಹು",
    "1285": " ಉಪ",
    "1286": "ತಪ್ಪ",
    "1287": "ರೇಂದ್ರ ಮೋದ",
    "1288": "ಾರ್ವ",
    "1289": "ಭಾರತೀಯ",
    "1290": "ರುತ್ತದೆ.\n\n",
    "1291": "ಿ ಪ",
    "1292": "ಅಂತ",
    "1293": "ಿವು",
    "1294": "ೆಟ್ಟ",
    "1295": "ವಿಕ",
    "1296": " ಅದ",
    "1297": "ಇನ್ನ",
    "1298": "ಡಿ.\n\n",
    "1299": "ಸ್ವಾ",
    "1300": "ಹೇಳಿದ್ದಾರೆ.\n\n",
    "1301": "ೀಚ",
    "1302": "ಚನ",
    "1303": "ದ್ದರಿಂದ",
    "1304": " ಬಂದ",
    "1305": "ಕಷ್ಟು ",
    "1306": "ಒಂದ",
    "1307": "ಗಾಯ",
    "1308": "ತಿಳಿದ",
    "1309": "ಾಲಿವು",
    "1310": "ಿಂಗ್",
    "1311": "ಕಟ",
    "1312": " ಸ್ಪ",
    "1313": "ಷ್ಟೇ",
    "1314": "ರೋಧ",
    "1315": " ನಡೆಯ",
    "1316": "ುತ್ತಿದ್ದಾರೆ.\n\n",
    "1317": "ಅಮ",
    "1318": "ಎಲ್ಲಾ",
    "1319": " ವಿಚಾರ",
    "1320": "ಡಿದ",
    "1321": "ತೋ",
    "1322": "ೊಳಿಸ",
    "1323": "ತೀ",
    "1324": "ಂಕ್",
    "1325": "ಸಾಮಾನ್ಯ",
    "1326": "ವಿಲ್ಲ",
    "1327": " ವೇಳ",
    "1328": "ಂದರ",
    "1329": " ಪ್ರದೇಶ",
    "1330": ", ಪ",
    "1331": "್ಯರ್ಥ",
    "1332": "ಮಾತನಾಡ",
    "1333": "ಸ್ರ",
    "1334": " ಅಗತ್ಯ",
    "1335": " ಅವರನ್ನು ",
    "1336": "ಿಸಿಕೊಳ್ಳ",
    "1337": "ಬೇರ",
    "1338": "ಎಸ್‌",
    "1339": "ುತ್ತಾರ",
    "1340": "ವಿದ",
    "1341": " ಓ",
    "1342": "ಿರಿಯ",
    "1343": "ರ್ಥಿಕ",
    "1344": "ೋದರ",
    "1345": "ಸ್ಪಷ್ಟ",
    "1346": "ಇವರ",
    "1347": "ಮತ",
    "1348": "ಇದೇ",
    "1349": " ವರ್ಷ",
    "1350": "ವರೆಗೆ ",
    "1351": "ಿಗಳಿಗೆ ",
    "1352": "ಹೆ",
    "1353": " ಶ್ರ",
    "1354": "ಭಾರತದ",
    "1355": "ಮಂತ್ರಿ ",
    "1356": "ಬ್ರ",
    "1357": "ಗಮನ",
    "1358": "ು ಮತ್ತು ",
    "1359": "ತಿಯಲ್ಲಿ ",
    "1360": " ಮಂದ",
    "1361": "ವಿಶ್ವ",
    "1362": "ಿಯಿಂದ",
    "1363": "ಹಿತಿ ",
    "1364": ". ”",
    "1365": "ಸ್ ಠಾಣ",
    "1366": " ಪಟ್ಟ",
    "1367": "ರೂ.\n\n",
    "1368": "ವಿರ",
    "1369": "ೇರಿದಂತೆ ",
    "1370": " ಸೂ",
    "1371": "ನಗರ",
    "1372": "ಭಾಷ",
    "1373": " ಸಂಸ್ಥ",
    "1374": " ಎಂದರು.\n\n",
    "1375": " ಗೆ ",
    "1376": "ರುತ",
    "1377": " ನ್ಯಾಯ",
    "1378": "ಅಭ",
    "1379": " ಹೊಸ",
    "1380": "ಲಾಖ",
    "1381": "ಅಥವಾ",
    "1382": "ದಾನ",
    "1383": "ಆತ",
    "1384": "ಇಲ್ಲಿ ",
    "1385": "ವೇಶ",
    "1386": " ಪೊಲೀಸರು ",
    "1387": "ಲಾಗಿತ್ತು.\n\n",
    "1388": "ೀನಾ",
    "1389": "ಯ್ಯ",
    "1390": "ಶೋ",
    "1391": "ಂಬುದು ",
    "1392": " ಪ್ರಮುಖ",
    "1393": " ಆಟ",
    "1394": "ದೀ",
    "1395": "ೆ ಮತ್ತು ",
    "1396": "ಕ್ತಿ",
    "1397": "ತನಿಖ",
    "1398": "ರಾಮ",
    "1399": "ಕ್ತಿ ",
    "1400": "ಬಿಡುಗಡ",
    "1401": "ೆಲ್ಲಾ",
    "1402": " ಬೈ",
    "1403": "ಸರ್",
    "1404": "ಾವಣ",
    "1405": "ೆಯೂ",
    "1406": "ಭೇ",
    "1407": "ತ್ಪಾದ",
    "1408": "ಹೆಚ್ಚಿನ",
    "1409": " —",
    "1410": " ಇಂಡಿಯಾ",
    "1411": "ೊಳ",
    "1412": "ಲ್ಲೂ",
    "1413": "ಪಡೆದ",
    "1414": "ಉತ್ತಮ",
    "1415": "000",
    "1416": " ಸೈ",
    "1417": "ಏನ",
    "1418": "ರಿಯ",
    "1419": "ಿಗಾಗಿ ",
    "1420": "ೆ.\"\n\n",
    "1421": " ನಿರ್ದೇಶ",
    "1422": "ನಿರ್ವಹ",
    "1423": "ಿದ್ದು,",
    "1424": " ಪ್ರಮಾಣ",
    "1425": " ಮಾರ್",
    "1426": "ಪರ",
    "1427": "ಿಗಳನ್ನು ",
    "1428": "ಸ್ಥಾನ",
    "1429": "ಪ್ರಾ",
    "1430": "ಆದ್ದರಿಂದ",
    "1431": "ಟ್ ಮಾಡ",
    "1432": "ತೆರ",
    "1433": "ಲಿಲ್ಲ",
    "1434": "ು ಸ",
    "1435": "ನಂಬ",
    "1436": " ಅಲ್ಲ",
    "1437": "ದಾಹ",
    "1438": "ೆದ್ದ",
    "1439": " ವ್ಯಾ",
    "1440": " ಅಧಿಕಾರ",
    "1441": "ಅವನು ",
    "1442": " ಬೇ",
    "1443": "ಕಾಶ್",
    "1444": ", ಸ",
    "1445": "ರಿಸ್",
    "1446": " ಪ್ರಶ್ನ",
    "1447": "ಮಾತ",
    "1448": " ಕ್ಷೇತ್ರ",
    "1449": "ು ಮಾಡ",
    "1450": " 5",
    "1451": " ಜಿಲ್ಲ",
    "1452": "ಲ್ಲಿರುವ",
    "1453": "ೆಗಾಗಿ ",
    "1454": "ಣಾ",
    "1455": "ೃತ್ತ",
    "1456": "ಕೊಡ",
    "1457": "ಸ್ಪತ್ರೆಗೆ ",
    "1458": " ನಿಯ",
    "1459": " ಮೊದಲ",
    "1460": "ನಾಥ",
    "1461": "ಅಪ",
    "1462": " .\n\n",
    "1463": " ಆರಂಭ",
    "1464": "ಎಂದ",
    "1465": "ತಿಳಿಸಿದರು.\n\n",
    "1466": "ುವುದು.\n\n",
    "1467": " ಬಹ",
    "1468": "ಮುಂದಿನ",
    "1469": "ಿ ಆ",
    "1470": "ಶ್ರೀ",
    "1471": ": “",
    "1472": "ಿ ಕ",
    "1473": "ಾಕಿಸ್ತಾನ",
    "1474": " ಕಾರ್ಯಕ್ರಮ",
    "1475": "ಇವ",
    "1476": "ಡೆ ",
    "1477": "ರಿಸ್ಥ",
    "1478": "ಾದ್",
    "1479": "ೇವಲ",
    "1480": "ಅವರನ್ನು ",
    "1481": " ಯಾವುದೇ",
    "1482": "ಚುನಾವಣ",
    "1483": "ಗಳು ಮತ್ತು ",
    "1484": "ೋನ",
    "1485": "ಅಗತ್ಯ",
    "1486": "ಳ್ಳೆಯ",
    "1487": "ಫಲ",
    "1488": "ಿಗ್",
    "1489": "ಪ್ರಕರಣ ದಾಖ",
    "1490": " ರೂ.\n\n",
    "1491": "ಿಕೆಯ",
    "1492": "ಾರ್ವಜನ",
    "1493": "ಾರ್ವಜನಿಕ",
    "1494": "201",
    "1495": "ಿದ್ದಾರೆ ಎಂದು ",
    "1496": "ನಾನ",
    "1497": "ವಿಚಾರ",
    "1498": ": 1",
    "1499": "ೆಗೂ",
    "1500": ")\n\n",
    "1501": "ಂಬೈ",
    "1502": " ವಿಧಾನ",
    "1503": "ಿಲ",
    "1504": " ಹೊ",
    "1505": "್ಟ್",
    "1506": "ಬಳಿಕ",
    "1507": "ಂದರ್ಭದಲ್ಲಿ ",
    "1508": "ಿ ಪ್ರ",
    "1509": "ದ ಮ",
    "1510": "ರಿಸ್ಥಿತ",
    "1511": "ದಗ",
    "1512": "ಇನ್ನು ",
    "1513": "ಆರೋಪ",
    "1514": " ಇದೆ.\n\n",
    "1515": "ಯೋಜನ",
    "1516": "ಮೊದಲ",
    "1517": " ಕಂಪ",
    "1518": "ತ್‌",
    "1519": "ನ್ಸ್",
    "1520": "ಿಮ",
    "1521": "ತೆಯನ್ನು ",
    "1522": "ಜಿಲ್ಲಾ",
    "1523": "ಣಾಮ",
    "1524": " ಪಾತ್ರ",
    "1525": "ಹುಲ್",
    "1526": "ಿದ್ದೇನೆ.\n\n",
    "1527": "ವಿಶೇಷ",
    "1528": "ರಸ್ತ",
    "1529": " ಅಂತ",
    "1530": "ಮ್‌",
    "1531": " ಗ್ರಾ",
    "1532": " ಯೋಜನ",
    "1533": "ತುಂಬಾ",
    "1534": "ಪತ್ರ",
    "1535": "ಕೆಲಸ ಮಾಡ",
    "1536": " ಆದ",
    "1537": "ಚಿಕಿತ್",
    "1538": "ಬಯ",
    "1539": " ಸಂಖ್ಯ",
    "1540": "ಜನರು ",
    "1541": "ಿ ಹಾಗೂ",
    "1542": "ದ್ದೇಶ",
    "1543": "ಿಸಿ.\n\n",
    "1544": "ಬೇಕಾಗ",
    "1545": "ಇತ್ತ",
    "1546": "ನೀ",
    "1547": " ತನ್ನ",
    "1548": "ತಿಕ್ರ",
    "1549": " ಜೊತೆ ",
    "1550": "ವ್ಯಾ",
    "1551": " ಹಲ",
    "1552": "ು ಎಂದು ",
    "1553": "ಘೋಷ",
    "1554": "ರಾಟ",
    "1555": " ಸಂಬಂಧ",
    "1556": "ಸಹಾಯ",
    "1557": "ಪುರ",
    "1558": "ಸಿ ",
    "1559": "ಪ್ರತಿಭಟ",
    "1560": "ಬ್ಬ್ಬ್ಬ್ಬ್ಬ್ಬ್ಬ್",
    "1561": "ದ ಬ",
    "1562": "ೋಲ",
    "1563": "ಕ್ಸ್",
    "1564": "ಸ್ತ್ರ",
    "1565": " ದು",
    "1566": " ತಮ್ಮ",
    "1567": "ತ್ಮಕ",
    "1568": "ಯೇ",
    "1569": "ೋಕ",
    "1570": "ನೆರ",
    "1571": "ರಕ್ಷ",
    "1572": " ನಾವು ",
    "1573": "ಡಳಿತ",
    "1574": "ಾರು ",
    "1575": "ವಿದ್ಯ",
    "1576": "ಬೇ",
    "1577": "ಇದೆ.\n\n",
    "1578": "ಒಪ್ಪ",
    "1579": "ಟೀ",
    "1580": "ಳು.\n\n",
    "1581": "ಸ್ಥಿತರ",
    "1582": " ಚುನಾವಣ",
    "1583": "ಾಯ್",
    "1584": "ಬ್ಯಾ",
    "1585": "ಟಾ",
    "1586": "ೆಯಾಗಿದೆ.\n\n",
    "1587": "ಿರುಗ",
    "1588": " ಸೇ",
    "1589": "ಮಳ",
    "1590": "ಗೌ",
    "1591": "ವಿದ್ಯಾರ್ಥ",
    "1592": "ಿಕೊ",
    "1593": "ಾದ್ಯ",
    "1594": "ಾದರೂ",
    "1595": "ಿಯು ",
    "1596": "ನು.",
    "1597": "ಮಾರು ",
    "1598": "ಗ್ರಾ",
    "1599": "ಪಾಲ್",
    "1600": "ಭಾಗವಹ",
    "1601": "ೀಗ",
    "1602": "ಾಲಿವುಡ್",
    "1603": " ಜೀವನ",
    "1604": "ಪಡಿಸ",
    "1605": " ಮಿ",
    "1606": "ತಯಾರ",
    "1607": " ಕುಟುಂಬ",
    "1608": "ಸಂಬಂಧಿಸಿದ",
    "1609": "ೆರಿಕ",
    "1610": "ನನ್ನು ",
    "1611": "\n\nಈ",
    "1612": "ಪ್ರತಿಯ",
    "1613": "ನುಷ್ಯ",
    "1614": "ತಿಕ್ರಿಯ",
    "1615": "ಾರಂಭ",
    "1616": " ವಿಶ್ವ",
    "1617": " ಹೊಂದ",
    "1618": ", ಜ",
    "1619": "ಲು ಸಾಧ್ಯ",
    "1620": "ಹೊರ",
    "1621": "ಗೊತ್ತ",
    "1622": "ಟ್ವೀ",
    "1623": " ಕೃ",
    "1624": "ಡೀ",
    "1625": " ಸ್ಥಿತ",
    "1626": "ಪ್ರಾಯ",
    "1627": "ರ್ಧ",
    "1628": "ೃಹ",
    "1629": "ಸರಕಾರ",
    "1630": " ಕ್ರಿಕೆ",
    "1631": "ೂಕ",
    "1632": "ಕಟ್ಟ",
    "1633": "ೆಗಳಿಗೆ ",
    "1634": " ಜನರ",
    "1635": "ಸಾಕಷ್ಟು ",
    "1636": " ಪ್ರಾ",
    "1637": "ಿಟ್ಟ",
    "1638": " ಸುರ",
    "1639": " ಎಸ್",
    "1640": "ರಿದ",
    "1641": " ವ್ಯವಸ್ಥ",
    "1642": " ಭಾರತೀಯ",
    "1643": "ಬದಲ",
    "1644": "ಂಬಲ",
    "1645": "ಿತಾಂಶ",
    "1646": " ಬಳಿಕ",
    "1647": "ಒಳಗ",
    "1648": "ಎಫ್",
    "1649": "ರ್ಟ್",
    "1650": " ಹಣ",
    "1651": "ಾನೂನು ",
    "1652": " ಕಾರ್",
    "1653": " ಮತ್ತ",
    "1654": " ನಡೆಸ",
    "1655": "ಸ್ವಲ್ಪ",
    "1656": " ಕಳ",
    "1657": "10",
    "1658": "ಲಭ್ಯ",
    "1659": " ಶಾ",
    "1660": "ಹೆಚ್ಚು ",
    "1661": " ಅಧಿಕ",
    "1662": ", ಹ",
    "1663": "ಮಹಿ",
    "1664": "ಸಿದ್ಧ",
    "1665": "ಹೇಳಿದ",
    "1666": " ಸಂಗ",
    "1667": "ಬರುವ",
    "1668": " ಸಲ",
    "1669": "ವರನ್ನು ",
    "1670": "ೇನು ",
    "1671": " ತಂದ",
    "1672": "ಉದಾಹ",
    "1673": " ಹಾಕ",
    "1674": "ಸ್ ಠಾಣೆಯಲ್ಲಿ ",
    "1675": "ಕಷ್ಟ",
    "1676": "ಇಸ್ರ",
    "1677": " ಅಭಿವೃದ್ಧ",
    "1678": "ೋಶ",
    "1679": "ವಿಧಾನ",
    "1680": "ದ ",
    "1681": "ೀಕ್ಷ",
    "1682": "ಸದ್ಯ",
    "1683": "ಯಾವುದ",
    "1684": "ಲೈ",
    "1685": "ುವುದಿಲ್ಲ",
    "1686": "ಕಾರ್ಯಕ್ರಮ",
    "1687": "ೆ:",
    "1688": "ಆರಂಭ",
    "1689": "ಲು",
    "1690": "ಬಳಸ",
    "1691": "ದೊಡ್ಡ",
    "1692": "ುಕಟ್ಟ",
    "1693": " ಬೆಲ",
    "1694": " ಬದಲ",
    "1695": "ಈಗಾಗ",
    "1696": "ಚ್ಛ",
    "1697": " ಉತ್ತ",
    "1698": "ನದ",
    "1699": "ಇಂತಹ",
    "1700": " ಕೊಡ",
    "1701": "ಆತನ",
    "1702": "ಪದ",
    "1703": "ದುರ",
    "1704": "ವಲ್ಲ.\n\n",
    "1705": "ಶೀಲ",
    "1706": " ಸಭ",
    "1707": " ಸ್ವ",
    "1708": "ಬೀ",
    "1709": " ವೇಳೆ ",
    "1710": "ನೀಡಿದ್ದಾರೆ.\n\n",
    "1711": "ಬ್ಬಂದ",
    "1712": "ಒಳ",
    "1713": ",000",
    "1714": ", ನ",
    "1715": "ಚೆನ್ನ",
    "1716": "ಬಯಸ",
    "1717": "ಯಾವಾಗ",
    "1718": "ಾರಾ",
    "1719": " ಖಾನ್",
    "1720": " ಬಿಡುಗಡ",
    "1721": " ಮಾಜಿ ",
    "1722": "ಕಾಂಗ್ರೆಸ್‌",
    "1723": "ದಲ್ಲೇ",
    "1724": " ಇದ್ದ",
    "1725": " ನಿರ",
    "1726": "ೀವ್ರ",
    "1727": ".\n\nಈ",
    "1728": "ದೂರು ",
    "1729": "ದ್ಯೋಗ",
    "1730": "ಕೇವಲ",
    "1731": "ಪ್‌",
    "1732": "ಧ್ಯಮ",
    "1733": " ಇತರ",
    "1734": "ವಲ್ಲ",
    "1735": "ಲ್ಲೇ",
    "1736": " ಮಟ್ಟ",
    "1737": "ಇರ",
    "1738": " ಹೆಚ್ಚು ",
    "1739": "ೈಸ್ತ",
    "1740": "ಘಟನೆ ",
    "1741": "ಿಸುತ್ತದ",
    "1742": "ಭಿನ್ನ",
    "1743": " ತೆಗ",
    "1744": "ಲಾಯಿತು.\n\n",
    "1745": " ಕೇಂದ್ರ",
    "1746": "ಸ್ಟ್ರ",
    "1747": "ರ್ಷ",
    "1748": "ಸಿನ",
    "1749": "ಮಗ",
    "1750": "ಸ್ಥಿತರಿದ್ದರು.\n\n",
    "1751": " ವ್ಯಕ್ತ",
    "1752": "ಮಚ",
    "1753": " ಆರ್",
    "1754": "ರಷ್ಟು ",
    "1755": "ಸಾರ್ವಜನಿಕ",
    "1756": " ಸಾಧ್ಯ",
    "1757": "ಮೋದ",
    "1758": "ಟಿಂಗ್",
    "1759": "ಕೊಟ್ಟ",
    "1760": "ೊಂದ",
    "1761": "ಾದ್ಯಂತ",
    "1762": " ಕಿ",
    "1763": "ಆರೋಗ್ಯ",
    "1764": " ಪದ",
    "1765": "ಿದ್ದೇವೆ.\n\n",
    "1766": "ಒಟ್ಟು ",
    "1767": " ನಿರ್ಧಾರ",
    "1768": " 12",
    "1769": "ದಯ",
    "1770": " ಕಡ",
    "1771": " ವಾಹನ",
    "1772": "ುತ್ತಾ",
    "1773": "ಗುರುತ",
    "1774": "ಬರೆದ",
    "1775": "ೈಕ",
    "1776": "ಸಾಗ",
    "1777": "ಸೇವ",
    "1778": "ಿಯನ್",
    "1779": "ಂಭೀರ",
    "1780": "ಹಾಸ",
    "1781": "ಪೊಲೀಸ",
    "1782": " ಬದ",
    "1783": "ದೂರ",
    "1784": " ಆರೋಗ್ಯ",
    "1785": "ಜಯ",
    "1786": " ಟ್ರ",
    "1787": "ನ್ಯೂ",
    "1788": "ೇಟ್",
    "1789": "ಡಿಕ",
    "1790": "ಕ್ಷಿಣ",
    "1791": "ಿಸುತ್ತದೆ.\n\n",
    "1792": "ಅಧಿಕಾರ",
    "1793": "ಶಾಸ",
    "1794": "ಹಲವು ",
    "1795": "ಸಂಭವ",
    "1796": " ಸರಕಾರ",
    "1797": "ಟ್ರೋ",
    "1798": "ಮೀರ",
    "1799": "ಕ್ಕಿಂತ",
    "1800": "ಕೃತ",
    "1801": " ಸಾಮ",
    "1802": "ಮಂದ",
    "1803": " ನೆರ",
    "1804": "ನಿರ್ದೇಶ",
    "1805": " ಸೌ",
    "1806": "ವಯ",
    "1807": "ಗಿ",
    "1808": "ಕಿ",
    "1809": "ಘಾತ",
    "1810": "ವಾಗಿತ್ತು.\n\n",
    "1811": "ವಾಗಿಯೂ",
    "1812": "ರಾಜಕೀಯ",
    "1813": "ಪ್ರಶ್ನ",
    "1814": "ಸಂಪೂರ್ಣ",
    "1815": "ಎಂಬ",
    "1816": "ಪರ್ಕ",
    "1817": " ಬಂಧ",
    "1818": "ಾದರ",
    "1819": "ಶು",
    "1820": "ಕೂ",
    "1821": "ಪರ್ಧ",
    "1822": "ುತ್ತಿಲ್ಲ.\n\n",
    "1823": "ನ್ಯಾ",
    "1824": "ಕೇ",
    "1825": "ಲಾಗುತ್ತದೆ.\n\n",
    "1826": "ಹಾನ",
    "1827": " ಇಲಾಖ",
    "1828": "ಇಂಗ್",
    "1829": "ಿದ್ದೇನ",
    "1830": "ವು",
    "1831": "ಳಿ ",
    "1832": " ಕೇಳ",
    "1833": "ಡಿಮೆ ",
    "1834": "ಚರ",
    "1835": "ಬಹು",
    "1836": "ಿ ಮೋದ",
    "1837": " ಗಳ",
    "1838": "ಹತ್ಯ",
    "1839": "ನಾಗ",
    "1840": "…\n\n",
    "1841": "ಲೋಕ",
    "1842": "ಭಾರತದಲ್ಲಿ ",
    "1843": "ಜಯ್",
    "1844": " ಗೌ",
    "1845": "ೆಸ್ಟ್",
    "1846": "ಮುಂದುವರ",
    "1847": " ಬರ",
    "1848": "ಮಿಕ",
    "1849": " ಭಾರತದ",
    "1850": " ಇರ",
    "1851": "ವನ್ನೂ",
    "1852": "ಅವಕಾಶ",
    "1853": "ಬೆಂಗಳೂ",
    "1854": "ಂಗಳೂರು ",
    "1855": " 4",
    "1856": "ಸಿಕ್ಕ",
    "1857": "ೈನ",
    "1858": "ಪ್ರಕರಣ ದಾಖಲಾಗಿದೆ.\n\n",
    "1859": "ಮಾಜಿಕ",
    "1860": "ೆಂಬ",
    "1861": "ಿ ನರೇಂದ್ರ ಮೋದ",
    "1862": "ೋಹ",
    "1863": "12",
    "1864": "ಹೇ",
    "1865": " ಪ್",
    "1866": "ಿಸಬೇಕು.\n\n",
    "1867": "ನಿಗ",
    "1868": "ಬ್ದ",
    "1869": "ಿಸಲ್ಪಟ್ಟ",
    "1870": "ದೇವ",
    "1871": " ಸೇರಿದಂತೆ ",
    "1872": "ಬಿಟ್ಟ",
    "1873": " ಪಿ",
    "1874": " ಅಭ್ಯರ್ಥ",
    "1875": "ರಾಷ್ಟ್ರ",
    "1876": " ತಪ್ಪ",
    "1877": "ು ಬ",
    "1878": "ುತ್ತವೆ.\n\n",
    "1879": " ನೇ",
    "1880": "ರ್ಪ",
    "1881": "ದುರಿಸ",
    "1882": " ದೇವರ",
    "1883": " ಮಾರ್ಗ",
    "1884": "ಮಿ ",
    "1885": "ಶೀ",
    "1886": "ರೆ",
    "1887": "ಯಾರೂ",
    "1888": "ನಾಯಕ",
    "1889": "ಡೆ",
    "1890": " ದಾಳ",
    "1891": "ಸಾರ",
    "1892": "ಿಯಲ್ಲ",
    "1893": "ವಾಲ್",
    "1894": "ರೂಪ",
    "1895": "ೆ:\n\n",
    "1896": " ವಿಮಾನ",
    "1897": " ಆಫ್",
    "1898": " ಅತ್ಯ",
    "1899": "” ಎಂದು ",
    "1900": "ಿಸಬಹುದ",
    "1901": "ೊತ್ತ",
    "1902": "ಯೆಹೋವನ",
    "1903": "ಕಳೆದ",
    "1904": "ನಟ",
    "1905": " ಜನರು ",
    "1906": "ೆ ನಡೆಸ",
    "1907": "ಮೃತ",
    "1908": "ು ಹೋಗ",
    "1909": ". ”\n\n",
    "1910": "ಲಕ್ಷ",
    "1911": "ಬದ",
    "1912": " ಶು",
    "1913": "ಳವ",
    "1914": "ಕರ್ತ",
    "1915": "ಯೆಹೋವನು ",
    "1916": "ಕುಮಾರ್",
    "1917": "ಲ್ ",
    "1918": "ಮೂರು ",
    "1919": "ಯನ",
    "1920": ", ಆ",
    "1921": "ತ್ರಿ",
    "1922": "ತಿಯನ್ನು ",
    "1923": " ಅಮ",
    "1924": " ಆಯ್ಕ",
    "1925": " ಪಡೆಯ",
    "1926": "ಚಲ",
    "1927": "ವಾಯ",
    "1928": "ೈಸ",
    "1929": "ನ್ನೇ",
    "1930": "ವಿರುದ್ಧ",
    "1931": " ವಿಧ",
    "1932": "ಉಂಟ",
    "1933": "ನೆ ಮಾಡ",
    "1934": "ಕರ್ನಾಟಕ",
    "1935": "ಭೇಟಿ ",
    "1936": " ನೀವು ",
    "1937": " ಎನ್ನ",
    "1938": "ಏಕೆ ",
    "1939": "ಜಾರ",
    "1940": "ಅದಕ್ಕೆ ",
    "1941": "ಡಿಮ",
    "1942": " ನಂಬ",
    "1943": "ಇಷ್ಟ",
    "1944": " ಪ್ರೀ",
    "1945": " ಅವರಿಗೆ ",
    "1946": "ತಡ",
    "1947": " ಮಹಿ",
    "1948": "ರಾಷ್ಟ್ರೀಯ",
    "1949": "ುನ",
    "1950": " ಅರ್ಥ",
    "1951": "ಬೇಕಾದ",
    "1952": "ಸ್ಪರ್ಧ",
    "1953": "ಆಕ",
    "1954": "ಾಚಾರ",
    "1955": "--",
    "1956": " ಗೋ",
    "1957": "ಕಾರ್",
    "1958": " ಅಭಿ",
    "1959": "ೋನ್",
    "1960": "ೋಟೋ",
    "1961": " ನೋಡ",
    "1962": "ವಿವರ",
    "1963": " ಸಿಬ್ಬಂದ",
    "1964": "ಿರುವುದು ",
    "1965": "30",
    "1966": " ಗಾಂಧಿ ",
    "1967": "ಸಭೆ ",
    "1968": " ಕಾರ್ಯದರ್ಶ",
    "1969": " ಶೆಟ್ಟ",
    "1970": " ಅಪ",
    "1971": " ದಾಖಲ",
    "1972": "ಂಬುದನ್ನು ",
    "1973": "ವಿರೋಧ",
    "1974": "ಲಿದ್ದಾರೆ.\n\n",
    "1975": "ವಾಲಯ",
    "1976": "ಬಿಡ",
    "1977": " ಬೇಕ",
    "1978": " ಶಾಲ",
    "1979": "ೋಗ",
    "1980": "ೋಸ್",
    "1981": "ದ ಮೇಲೆ ",
    "1982": " ಫಲ",
    "1983": "ಅಂದ",
    "1984": "ಕನ್ನಡ",
    "1985": "ಜೊ",
    "1986": "ು: “",
    "1987": " ಸ್ಪರ್ಧ",
    "1988": " ಮಾತ್ರ",
    "1989": " ಪ್ರಕಾರ",
    "1990": " ಮಹ",
    "1991": " ಸಮಯದಲ್ಲಿ ",
    "1992": " ಪರೀಕ್ಷ",
    "1993": "ಒತ್ತ",
    "1994": " ವರದ",
    "1995": "ಮ್ಮೆ ",
    "1996": "ಬಾರದು.\n\n",
    "1997": "​​",
    "1998": " ಅನೇಕ",
    "1999": "ಂತ್ಯ",
    "2000": "ಜೆಡಿ",
    "2001": ".\n\nಇದು ",
    "2002": "ತೋರಿಸ",
    "2003": "ದರ್ಶನ",
    "2004": " ಮುಖ",
    "2005": " ತನಿಖ",
    "2006": "ೇಯ",
    "2007": "ಚರ್ಚ",
    "2008": " ಅನುಭವ",
    "2009": "ಿರಿ.\n\n",
    "2010": " ಸಚಿ",
    "2011": "ಜ್ಯ",
    "2012": " ದೇವ",
    "2013": "ೀನ",
    "2014": "ವರ್ಷ",
    "2015": "ಓದ",
    "2016": "ಿದೆ?\n\n",
    "2017": " ನಿನ್ನ",
    "2018": "ಉದಾಹರಣ",
    "2019": "ಶಯ",
    "2020": "ಅವಳ",
    "2021": "ಇಂದ",
    "2022": "ಪ್ರಯತ್ನ",
    "2023": "14",
    "2024": " ಆಟಗಾರ",
    "2025": " ಕೊಹ್",
    "2026": "ೇರಳ",
    "2027": "ಬಿಐ",
    "2028": "್ಯಾತ",
    "2029": "ಮಾಡುವ",
    "2030": " ಹೋ",
    "2031": "ಪ್ರತಿ ",
    "2032": "ುನಾವಣೆ ",
    "2033": "ಟೆ",
    "2034": "ಸಮಯ",
    "2035": "ಂತೋಷ",
    "2036": " ಮಂಡ",
    "2037": "್ರಿ",
    "2038": "ಪಾಕಿಸ್ತಾನ",
    "2039": "ಕ್ಷಕ",
    "2040": "ಕಳುಹ",
    "2041": "ಯೇಸು ",
    "2042": "ಇತ್ತೀಚ",
    "2043": "ಸಭಾ",
    "2044": "ಕ್ಕೆ ಬಂದ",
    "2045": " ಒಪ್ಪ",
    "2046": "ತಿಹಾಸ",
    "2047": " ಪತ್ರ",
    "2048": "​ —",
    "2049": ", ತ",
    "2050": "ಪಾವ",
    "2051": "ಸೂಚ",
    "2052": "ಭೂಮ",
    "2053": "ಿಸಿದೆ\n\n",
    "2054": " ದ್",
    "2055": ", ಬ",
    "2056": "ವಿ ",
    "2057": "ಹೀಗ",
    "2058": "ಬು",
    "2059": " ಮುಖಂಡ",
    "2060": "ಷ್ಣ",
    "2061": " ಸದಸ್ಯ",
    "2062": "್ರಹ",
    "2063": " ಮೆ",
    "2064": "ಮೇಲ",
    "2065": " ಗುಣ",
    "2066": "ಶ್ಯಕ",
    "2067": "ಇಬ್ಬರು ",
    "2068": "ಗಳು,",
    "2069": "ಶ್ವಾಸ",
    "2070": "ರ್ಮಾ",
    "2071": "ಕಾಶ್ಮೀರ",
    "2072": " ಉತ್ತಮ",
    "2073": "ಡಿ.",
    "2074": "ಿಸಲಾಗಿತ್ತು.\n\n",
    "2075": "ರಿನಲ್ಲಿ ",
    "2076": "ಭ್ರ",
    "2077": " ಅರ",
    "2078": "ಡಿಯೋ",
    "2079": "ಕ್ಷಣಾ",
    "2080": "ಯೋಜ",
    "2081": "ಮಹ",
    "2082": "ಮಾಹಿತಿ ",
    "2083": "ಹೇಗೆ ",
    "2084": "ಸಲ",
    "2085": "ಿಯೋ",
    "2086": " ಅವನ",
    "2087": "ಪ್ರಿಯ",
    "2088": "ರ್ಸ್",
    "2089": "ನೆಯಲ್ಲಿ ",
    "2090": "ವಾಳ",
    "2091": " ನನ್ನ",
    "2092": " ಮನೋ",
    "2093": "ತ್ವದ",
    "2094": " ಹಂತ",
    "2095": "ವರೂ",
    "2096": " ಅವನು ",
    "2097": "ುಗಳಲ್ಲಿ ",
    "2098": " ಎಂಜ",
    "2099": "ಆರ್ಥಿಕ",
    "2100": "ಇಸ್ರಾಯ",
    "2101": "ನಿನ್ನ",
    "2102": " ಪುತ್ರ",
    "2103": " ಗಣ",
    "2104": " 15",
    "2105": "ಸಮಸ್ಯ",
    "2106": "ನೀವು ",
    "2107": " ಮಧ್ಯ",
    "2108": "ನಿರಾ",
    "2109": "ಶ್ಚ",
    "2110": "ಅಲ್ಲಿ ",
    "2111": "ಬೇರೆ ",
    "2112": "ಯಾರು ",
    "2113": "ಾಲಕ",
    "2114": "ನಾಲ್ಕ",
    "2115": "ುತ್ತೇವೆ.\n\n",
    "2116": "ಪೊಲೀ",
    "2117": "ಿಕೊಳ್ಳುವ",
    "2118": "ಮದ",
    "2119": "ತೀವ್ರ",
    "2120": "​ —⁠",
    "2121": " ಪ್ರಕಟ",
    "2122": " ಉದ್ದೇಶ",
    "2123": "ಿವೆ\n\n",
    "2124": "ವಾರು ",
    "2125": " ಯೆಹೋ",
    "2126": "ುವಿನ",
    "2127": "ನಲ್ಲ",
    "2128": "್ರೆ ",
    "2129": " ದೊಡ್ಡ",
    "2130": " ಹಲವು ",
    "2131": "ಪ್ರವೇಶ",
    "2132": "ವರಣ",
    "2133": "ಒಳ್ಳೆಯ",
    "2134": "ುತ್ತಮ",
    "2135": "ಿಸಿರುವ",
    "2136": "ಿಯಾಗಿದೆ.\n\n",
    "2137": " ಧರ್ಮ",
    "2138": " ನಾಯ",
    "2139": "ರ್ವ",
    "2140": "ೊಟ್ಟ",
    "2141": "ಹೀಗಾಗಿ ",
    "2142": "ಚರಣ",
    "2143": "ಹೇಳಿದ್ದ",
    "2144": " ‘",
    "2145": "ಪ್ತ",
    "2146": " ರೀತಿಯ",
    "2147": " ನಗರ",
    "2148": " ನಾಲ್ಕ",
    "2149": "ಿಸುವುದು ",
    "2150": " ಆಹಾರ",
    "2151": "ತಂದ",
    "2152": "ಗಳನ್ನು ಹೊಂದ",
    "2153": "ವೈದ್ಯ",
    "2154": "ಮುಂಬೈ",
    "2155": "ಈ ಸಂಬಂಧ",
    "2156": "ೀಡ",
    "2157": "ಲುಪ",
    "2158": " ರೋ",
    "2159": "ಲ್ಯಾ",
    "2160": "ೇಟ",
    "2161": " ಮಾಡಿದ",
    "2162": " ಮೂರು ",
    "2163": "ಎಲ್ಲರಿಗೂ",
    "2164": "ಿ ಸರ್ಕಾರ",
    "2165": "ಿಸುತ್ತಿದ್ದಾರೆ.\n\n",
    "2166": "ಗಾಯಗೊಂಡ",
    "2167": " ಟಿ",
    "2168": "ಪಂಚ",
    "2169": "ಶಿವ",
    "2170": "ಬರುತ್ತ",
    "2171": "ಗುಣ",
    "2172": "ಈ ಕ",
    "2173": "ದ ಆ",
    "2174": "ುಗೆ ",
    "2175": "ೆಂದ",
    "2176": " ಅದನ್ನು ",
    "2177": " ಬಲ",
    "2178": "ತಂಡ",
    "2179": " ಸಾಧ",
    "2180": "ದಲ್ಲಿನ",
    "2181": "ಎದುರಿಸ",
    "2182": "ಸಲ್ಲ",
    "2183": "ಿಸಿತ್ತು.\n\n",
    "2184": " ಪ್ರಯತ್ನ",
    "2185": "ಚರಿಸ",
    "2186": " ಲೋಕ",
    "2187": " ”",
    "2188": " ಪರಿಸ್ಥಿತ",
    "2189": " ಯುವ",
    "2190": " ನಿರ್ವಹ",
    "2191": " ಸಿಗ",
    "2192": "ಮೂ",
    "2193": "ನೆಯನ್ನು ",
    "2194": "ಂಕಾ",
    "2195": " ತೀರ್",
    "2196": " ಬಾರ",
    "2197": " ಎರಡು ",
    "2198": " ಗಾಯ",
    "2199": "15",
    "2200": "ಮ್ಯಾ",
    "2201": " ತರ",
    "2202": " ತಿಳಿಸ",
    "2203": "ಹಾಗಾಗಿ ",
    "2204": "' ಎಂದು ",
    "2205": "ಹೋ",
    "2206": "್ಟ್‌",
    "2207": "ಸದ",
    "2208": "ಗಳನ್ನೂ",
    "2209": " ಕ್ಯಾ",
    "2210": "ಬೇಡ",
    "2211": "ಪರಿಗಣ",
    "2212": "ಡುಕ",
    "2213": "ಉಳಿದ",
    "2214": "\n\nಆದರೆ ",
    "2215": "ಭಯ",
    "2216": "ಪೂರ್ವ",
    "2217": " ಕನ್ನಡ",
    "2218": "ೈಲ",
    "2219": " ನಾಗ",
    "2220": "ಒದಗ",
    "2221": "ದಾರ",
    "2222": "ವಾಸ್ತ",
    "2223": " ಗಮನ",
    "2224": "ಕ್ಕೆ ಹ",
    "2225": " ದಿನಾ",
    "2226": "ಹಾರಾ",
    "2227": "ಹಾರಾಷ್ಟ್ರ",
    "2228": "್ಯಾನ",
    "2229": "ಾಗಿಯೂ",
    "2230": "me",
    "2231": "ಗಳಲ್ಲ",
    "2232": "ಕುಟುಂಬ",
    "2233": "ಈಗಾಗಲೇ",
    "2234": " ಒಂದ",
    "2235": " ವಿಭಾಗ",
    "2236": "ಉಪಸ್ಥಿತರಿದ್ದರು.\n\n",
    "2237": "ಸತ್ಯ",
    "2238": "ಮಿತ್",
    "2239": "ಯುವ",
    "2240": "ಾಡ್",
    "2241": " ತಯಾರ",
    "2242": "ಚ್‌",
    "2243": "ಜೀವನ",
    "2244": "ುತ್ತಾನೆ.\n\n",
    "2245": "ರು ಮತ್ತು ",
    "2246": " ಸ್ವಾ",
    "2247": "ಎನ್",
    "2248": "ುತ್ತೇವ",
    "2249": " ಸೋ",
    "2250": " ಬಹಳ",
    "2251": "ದಿದ್ದ",
    "2252": "ಸ್ಥಾಪ",
    "2253": "ನಿಮ",
    "2254": "ಾಸಗ",
    "2255": "ಭಾರ",
    "2256": "ನನ್ನನ್ನು ",
    "2257": "ಪ್ರಸ್ತ",
    "2258": "ಮಕ",
    "2259": " ಇರುವ",
    "2260": " ಪೊಲೀಸ್",
    "2261": " ಜ್",
    "2262": " ಹಕ್ಕ",
    "2263": "ಾಗಿತ್ತು.\n\n",
    "2264": " 6",
    "2265": "ಕಾಯ",
    "2266": " ಕಾಯ",
    "2267": "ಎಲ್ಲರೂ",
    "2268": "ಹೀಗೆ ",
    "2269": "ಸೀ",
    "2270": "ಮಿತ",
    "2271": "ುದ್ರ",
    "2272": "ಸೂಕ್ತ",
    "2273": "ನಗೆ ",
    "2274": "ಿಲ್ಲ ಎಂದು ",
    "2275": " ಹಿನ್ನ",
    "2276": "ಸುಲಭ",
    "2277": "ಅಧ್ಯಕ್ಷ",
    "2278": "ಆಯ್ಕ",
    "2279": "ಬೆಂಬಲ",
    "2280": " ಹೆಚ್ಚಿನ",
    "2281": "ಜೆ ",
    "2282": "ಇದರಲ್ಲಿ ",
    "2283": "ಕ್ಯ",
    "2284": " ಬಿಜೆಪಿ ",
    "2285": " ವಹ",
    "2286": "ರುಷ",
    "2287": "ಸೋ",
    "2288": "ಗಳನ್ನ",
    "2289": "ೆ ಎಲ್ಲ",
    "2290": " ವಿವಿಧ",
    "2291": "ಈ ಚಿತ್ರ",
    "2292": "ಷಧ",
    "2293": "ೌಲ",
    "2294": "ೈದ",
    "2295": "ಬಾದ್",
    "2296": "ವೃತ್ತ",
    "2297": "ರ್ಥ್ಯ",
    "2298": ".\n\nಆದರೆ ",
    "2299": " ಪೊಲೀಸ್ ಠಾಣೆಯಲ್ಲಿ ",
    "2300": "ಿಲ್",
    "2301": "ಸೆಲ್",
    "2302": "ತಕ್ಷಣ",
    "2303": " 10",
    "2304": " ಶೇ",
    "2305": "ರು.",
    "2306": "ನಾಥ್",
    "2307": "ನ್ವಯ",
    "2308": " ಹಿರಿಯ",
    "2309": " ಸಾಲ",
    "2310": "ಆತ್ಮ",
    "2311": "ಪರೀಕ್ಷ",
    "2312": "ಾಂತರ",
    "2313": " ಬಳಕ",
    "2314": "ಮಟ್ಟ",
    "2315": "ಪುನ",
    "2316": "ುಬಂದ",
    "2317": "ರಾಜ್ಯದ",
    "2318": "ವಲ",
    "2319": "ರಾಹುಲ್",
    "2320": " ಬಂಧನ",
    "2321": "ಂಗ್‌",
    "2322": "ಬೇಕೆಂದು ",
    "2323": "ಯಾವಾಗಲೂ",
    "2324": "ಜಾಗ",
    "2325": " ಭೂ",
    "2326": "ಅಭಿ",
    "2327": "ಲಿ.\n\n",
    "2328": " ಅಪಾಯ",
    "2329": " ಅದು ",
    "2330": "ಸ್ತಕ",
    "2331": " ವಸ್ತ",
    "2332": "ಬೆಂಕ",
    "2333": "ು:\n\n",
    "2334": "ತಂತ್ರ",
    "2335": "ವಿಡ್",
    "2336": "ತೆಗೆದುಕೊಂಡ",
    "2337": " ಸಹೋದರ",
    "2338": " :",
    "2339": "ಿಸಬಹುದು.\n\n",
    "2340": "ಜೀವ",
    "2341": "ಬಲ್‌",
    "2342": " ಸಾಂ",
    "2343": "ಅಮೆರಿಕ",
    "2344": "ಮಣ",
    "2345": "ದಲ್ಲಿದ್ದ",
    "2346": "ಿ ಅವರ",
    "2347": "ಪ್ರಕರಣ ದಾಖಲ",
    "2348": " ಎಂ",
    "2349": "ನೆ\n\n",
    "2350": "ವಿಷಯ",
    "2351": "ಮಿಳ",
    "2352": " ಮಾರುಕಟ್ಟ",
    "2353": "ವಿತ",
    "2354": " ಪ್ರಯಾಣ",
    "2355": "ನವ",
    "2356": "ದೆಹಲಿ",
    "2357": "ರಾ?\n\n",
    "2358": " ನಿರ್ಮಾಣ",
    "2359": "ರ್ಗ",
    "2360": "ಬ್‌",
    "2361": "ಡೇ",
    "2362": "ೋರ್ಟ್",
    "2363": "ೆಗೊಳಿಸ",
    "2364": "ಆದಾಗ",
    "2365": "ಆದಾಗ್ಯೂ",
    "2366": "ಮನವ",
    "2367": "ವಾಗಿ, ",
    "2368": "ಆದರೂ",
    "2369": "ಘ್ರ",
    "2370": "ಾವಣೆ ",
    "2371": "ಗೊ",
    "2372": "ೆಟ್ರೋ",
    "2373": "ರೀದ",
    "2374": "ದಂತೆ ",
    "2375": "40",
    "2376": "ತ್ತು.\n\n",
    "2377": " ಮೈ",
    "2378": "ನಾವು ಹ",
    "2379": "ಪರಿಣಾಮ",
    "2380": "ಇಬ್ಬ",
    "2381": " 7",
    "2382": "ಶಾಸಕ",
    "2383": " ರಾಜಕೀಯ",
    "2384": "ಇಲ್ಲ.\n\n",
    "2385": "ಣಿಗ",
    "2386": "ಡಿ\n\n",
    "2387": " ವ್ಯಕ್ತಪಡ",
    "2388": "ಬಲ್ಲ",
    "2389": "ರಚ",
    "2390": " ಮಗನಾದ",
    "2391": "ಅನುಭವ",
    "2392": "ಇವರು ",
    "2393": " 8",
    "2394": "ು ಹೇಗ",
    "2395": "ದಲ್ಲಿರುವ",
    "2396": "17",
    "2397": " ಆಗಿದೆ.\n\n",
    "2398": "ಡಿಯಲ್ಲಿ ",
    "2399": " ಯುದ್ಧ",
    "2400": "ಲ್ಪಡ",
    "2401": "ಶಿಕ್ಷಣ",
    "2402": "ಾಗಿ",
    "2403": "ಕಾಡ",
    "2404": " ಸಾಕ್ಷ",
    "2405": " ಕೆಲವು ",
    "2406": "ಣೆಯ",
    "2407": "ನ್ಸ",
    "2408": "ಪ್ರದೇಶ",
    "2409": "ರಾಜ್ಯದಲ್ಲಿ ",
    "2410": "ರಸ್",
    "2411": "ಾಗಿವೆ.\n\n",
    "2412": "ಗಳಿವೆ.\n\n",
    "2413": "ತ್ಯೇಕ",
    "2414": "ಬೇಡಿ.\n\n",
    "2415": "ವಿಷ್ಯ",
    "2416": "ಸ್ತಿ",
    "2417": " ನಿರೀಕ್ಷ",
    "2418": "ಿ ಎಂದು ",
    "2419": "ವೇಕ",
    "2420": " ಸಲಹ",
    "2421": "ಂದ್",
    "2422": "ವಶ",
    "2423": "ಗಂಭೀರ",
    "2424": " ವಿವರ",
    "2425": " ಒಬ್ಬ",
    "2426": "ನಗ",
    "2427": "ಪ್ರಧಾನಿ ನರೇಂದ್ರ ಮೋದ",
    "2428": "ರಿಕೆ ",
    "2429": " ವ್ಯಕ್ತಿ",
    "2430": "ಸಿಗ",
    "2431": "\"\" ಎಂದು ",
    "2432": "ತು ",
    "2433": "ವೆ ",
    "2434": "ುವಿ",
    "2435": "ನೀಡಲಾಗ",
    "2436": "ೂರನೇ",
    "2437": "ಿರಂಗ",
    "2438": "ಾತ್ರ",
    "2439": "ಸಂಪರ್ಕ",
    "2440": "ಮಾಜಿ ",
    "2441": "ಮುಖ್ಯಮಂತ್ರಿ ",
    "2442": " ಅವಕಾಶ",
    "2443": "ಟುವ",
    "2444": "ಜೀ",
    "2445": " ಕಟ್ಟ",
    "2446": "ಧರಿಸ",
    "2447": "ದ ಬಗ್ಗೆ ",
    "2448": "ಾಗಿದ್ದಾರೆ.\n\n",
    "2449": "ೇತ",
    "2450": " ಕೋಟಿ ರೂ.\n\n",
    "2451": " ಬ್ಯಾಂಕ್",
    "2452": "ಕೂಡಲೇ",
    "2453": "ಚಿಕಿತ್ಸೆ ",
    "2454": "ಆಟ",
    "2455": "ೊರೆಯ",
    "2456": " ಭಾವ",
    "2457": "ಧ್ಯಯನ",
    "2458": "ಸ್ಟ್ರೇಲ",
    "2459": "ಬಾರಿ ",
    "2460": "ಬೇಕ",
    "2461": "ಿಕೆಯನ್ನು ",
    "2462": "ದ್ದು ",
    "2463": "ರಿಸರ",
    "2464": "ೀಕರ",
    "2465": "ೆ!\n\n",
    "2466": " ವ್ಯವಹ",
    "2467": "ಾರ್ಕ್",
    "2468": "ಲೆಂಡ್",
    "2469": "ಔಷಧ",
    "2470": "ೇಶ್ವರ",
    "2471": " ಪೂರ್",
    "2472": "ಿ ಎ",
    "2473": " ವಾರ್",
    "2474": "ಮರು",
    "2475": "ವೇ?\n\n",
    "2476": " ಅಂಶ",
    "2477": "ೆ ಎಂದರು.\n\n",
    "2478": "ನಿಧ",
    "2479": " ತುಂಬ",
    "2480": "ಲ್ಸ್",
    "2481": " ಶಾಸ",
    "2482": "ಿಕೊಂಡಿದ್ದ",
    "2483": "ತಾನ",
    "2484": " ಯಾಕ",
    "2485": " ಯೇ",
    "2486": "ನೀರು ",
    "2487": "ಕ್ಕೆ ಕಾರಣ",
    "2488": " ಟೀ",
    "2489": "ವೋ",
    "2490": "ಆಗಮ",
    "2491": "ಗೌರವ",
    "2492": " ಹಾಗೆ ",
    "2493": "ಷೇ",
    "2494": "ರಾಟ್",
    "2495": "ೇದ",
    "2496": "ಸುಮಾರು ",
    "2497": "ಚಂದ್ರ",
    "2498": "ನ್, ",
    "2499": "ರು ಎಂದು ",
    "2500": " “",
    "2501": "ಕ್ಸ",
    "2502": "ಸ್ಲಿ",
    "2503": "ರಿಗ",
    "2504": " ಮುಂದಿನ",
    "2505": " ಚಲ",
    "2506": "ಸಚಿ",
    "2507": "ಾಗಲ",
    "2508": "ಿಸುತ್ತಿದ್ದ",
    "2509": "ಲಾದ",
    "2510": "ಿಕರ",
    "2511": "ವರ್ಗ",
    "2512": " ನಿಜ",
    "2513": "ಬಂದು ",
    "2514": "ುದಾಯ",
    "2515": "ಗ್ರಹ",
    "2516": "ಾಧ",
    "2517": "ೊಳಗೆ ",
    "2518": "ೇನು?\n\n",
    "2519": "ಸಾಧ",
    "2520": "ಿಸಲು ಸಾಧ್ಯ",
    "2521": "\n\nಅ",
    "2522": "ಟ್ಟಿನಲ್ಲಿ ",
    "2523": "ಾಂಗ",
    "2524": "ಶಿಷ್ಟ",
    "2525": "ೆಲುಗ",
    "2526": " ಕಂಪನಿಯ",
    "2527": "ಸಾಹ",
    "2528": "ಏನು?\n\n",
    "2529": "ಶ್ಚಿ",
    "2530": "ಪೂ",
    "2531": "ಪಿಎ",
    "2532": "ಟ್ವಿ",
    "2533": "ಹೊ",
    "2534": "ಟುವಟ",
    "2535": " ಕ್ರೈಸ್ತ",
    "2536": "ಠಾ",
    "2537": "ತೊಡ",
    "2538": "ುಹಾಕ",
    "2539": "ಏಕೆ",
    "2540": "ಆಸ್ಪತ್ರೆಗೆ ",
    "2541": " ವಾರ",
    "2542": "ಪಾಡ",
    "2543": "ಸೇರಿಸ",
    "2544": "ಸಿನಿಮಾ",
    "2545": "ಮೊದಲು ",
    "2546": "ೆನ",
    "2547": "ಶಸ್ವ",
    "2548": "ಬೇಕು",
    "2549": "ನಿಜಕ್ಕೂ",
    "2550": " ಮಾನ",
    "2551": " ರೀತಿ ",
    "2552": "ಜೆಡಿಎಸ್",
    "2553": "ಾಂತ",
    "2554": "ಬಗ್ಗೆ ",
    "2555": " ತಿಳಿದ",
    "2556": "ಬೆಲ",
    "2557": "ಿ ಸಲ್ಲ",
    "2558": "ಮಹಿಳೆಯ",
    "2559": "ದ ಅಧ್ಯಕ್ಷ",
    "2560": "ಪರಿಹಾರ",
    "2561": "ಖರ",
    "2562": "ವಾಗಿಲ್ಲ.\n\n",
    "2563": " ಸುರಕ್ಷ",
    "2564": " 20",
    "2565": " ಸಿದ್ಧ",
    "2566": "ನ್ ಮತ್ತು ",
    "2567": "ಿದೆ ಎಂದರು.\n\n",
    "2568": "ರೈತರ",
    "2569": "200",
    "2570": "ಳಾ",
    "2571": " ತಂತ್ರ",
    "2572": "ಮಹಾರಾಷ್ಟ್ರ",
    "2573": " ಶರ್ಮಾ",
    "2574": " ಸಾಮರ್ಥ್ಯ",
    "2575": "ತ್ತಿನ",
    "2576": "ಠಿಣ",
    "2577": "ಿರಬಹುದ",
    "2578": "ಈ ಕುರಿತು ",
    "2579": "ಮಾನ್",
    "2580": "ಕೆಟ್",
    "2581": " ಲಕ್ಷಣ",
    "2582": "ುಗಳಿಗೆ ",
    "2583": " ಅದರ",
    "2584": "ತೃ",
    "2585": "ತ್ತಿರ",
    "2586": "ೆ ಎನ್ನ",
    "2587": "ಷನ್",
    "2588": "ಸೇರ",
    "2589": "ಿರಬಹುದು.\n\n",
    "2590": " ಕ್ರಿಕೆಟ್",
    "2591": " ಫೋಟೋ",
    "2592": "\n\nಇದು ",
    "2593": "ಿರಿ",
    "2594": " ಕರ್ನಾಟಕ",
    "2595": "ರಾಟ್ ಕೊಹ್",
    "2596": " ಯಾದ",
    "2597": " ಕಂಡ",
    "2598": "ಮಾನಿ",
    "2599": " ಇಬ್ಬ",
    "2600": "ುವುದನ್ನು ",
    "2601": "ನೀಡಿದ್ದ",
    "2602": " ಕಲ",
    "2603": "ಬಾಲಿವುಡ್",
    "2604": "ುವಿಕ",
    "2605": "ಲಿದೆ\n\n",
    "2606": "ವಂತ",
    "2607": " ಎಂಜಿನ್",
    "2608": "ನಚಿತ್ರ",
    "2609": "ನಿಲ್",
    "2610": "ರಾಗಿ ",
    "2611": "ಕಾರ್ಯನಿರ್ವಹ",
    "2612": "ುದ್ದಿ ",
    "2613": " ಮಾಹಿತ",
    "2614": "ಿಸಿದನು.\n\n",
    "2615": " ರಚ",
    "2616": " ಮಾಡುತ್ತ",
    "2617": "ಗಳಿಗ",
    "2618": "ವರೆಗೂ",
    "2619": " ಬೆಂಗಳೂ",
    "2620": "ಪಾದ",
    "2621": "ಬೇಕು ಎ",
    "2622": " ಪರಿಹಾರ",
    "2623": " ಬೋ",
    "2624": "ುಕೂಲ",
    "2625": " ಜ್ಞ",
    "2626": " ಬಾರಿ ",
    "2627": "ರುಣ್",
    "2628": "ಚರಣೆ ",
    "2629": "ುವ ಮೂಲಕ",
    "2630": "ತಾಣ",
    "2631": "ೇನೂ",
    "2632": " ಮತ",
    "2633": "ಇಂಡ",
    "2634": "ಶ್ಚಿಮ",
    "2635": "ವಿವಿಧ",
    "2636": "ಸುವ",
    "2637": " ನಡುವಿನ",
    "2638": " ನೈ",
    "2639": "ಮಾರಾಟ",
    "2640": "ನಿರ್ಮ",
    "2641": "ಯಕ್ತ",
    "2642": "ಯಕ್ತಿಕ",
    "2643": "ನರ್",
    "2644": "ನೆ ನೀಡ",
    "2645": "ಆರ್‌",
    "2646": "‘‘",
    "2647": "ಹುಟ್ಟ",
    "2648": "ಅತ್ಯಂತ",
    "2649": "ೂಟ",
    "2650": " ವ್ಯಕ್ತಿಯ",
    "2651": "ಗಳೂ",
    "2652": " ಕುಮಾರ",
    "2653": " ಘೋಷ",
    "2654": "ಿಸಲಾಯಿತು.\n\n",
    "2655": "ೀರಿ",
    "2656": " ಪೊಲೀಸ",
    "2657": "ಇದಕ್ಕಾಗಿ ",
    "2658": "ಿಯವರು ",
    "2659": "ದಕ್ಷಿಣ",
    "2660": "ಿಕೊಂಡಿದ್ದಾರೆ.\n\n",
    "2661": " ಇದು ",
    "2662": " ನಿಂದ",
    "2663": " ಎಚ್ಚ",
    "2664": "ಟ್ವೀಟ್ ಮಾಡ",
    "2665": "ಳಗಿನ",
    "2666": "ರೆ,",
    "2667": "ಪಡೆದುಕೊಂಡ",
    "2668": " ಲೈ",
    "2669": ", ರ",
    "2670": "ಪರಿಶೀಲ",
    "2671": "ಪ್ರತಿಕ್ರಿಯ",
    "2672": "ಧಾರ್",
    "2673": " ಸ್ಪಷ್ಟ",
    "2674": "ಶೀಘ್ರ",
    "2675": "ೋಣ",
    "2676": " ವ್ಯವಹಾರ",
    "2677": " ಸಹಾಯ",
    "2678": "ಸಿಂಗ್",
    "2679": "ಸಾಲ",
    "2680": "ಿಸಿತು.\n\n",
    "2681": "ಸಮಾ",
    "2682": " ಚಮಚ",
    "2683": "ಶುದ್ಧ",
    "2684": "ಸಂದ",
    "2685": " ಕಪೂರ್",
    "2686": "ವಾಸ್ತವ",
    "2687": "ತಕ",
    "2688": "ೆಲುವ",
    "2689": " ಘಟನೆ ",
    "2690": "ಸಾಮಾನ್ಯವಾಗಿ ",
    "2691": " ಮೊದಲು ",
    "2692": " ಜೆ",
    "2693": " ಲೀ",
    "2694": "ಶೋಧ",
    "2695": "ವಾಗಿದ್ದ",
    "2696": "ಮೃತಪಟ್ಟ",
    "2697": "ಮಾನವ",
    "2698": " ರೆ",
    "2699": " ಚರ್ಚ",
    "2700": "ರು,",
    "2701": "ಏರಿಕ",
    "2702": "ಹಾಜ",
    "2703": "ಯಲ್",
    "2704": " ಮಾಹಿತಿ ",
    "2705": "ಶಾಸ್ತ್ರ",
    "2706": "ಇದೊಂದು ",
    "2707": "ನೈ",
    "2708": " ವೆ",
    "2709": "ಅವನಿಗೆ ",
    "2710": "ಅರ್ಥ",
    "2711": "ಿಕೊಳ್ಳ",
    "2712": "ೌಲ್ಯ",
    "2713": " ಚಿಕಿತ್",
    "2714": "ೆವು.\n\n",
    "2715": "ಹಮ್ಮ",
    "2716": "ಂಡವಾಳ",
    "2717": " ಸಾವಿರ",
    "2718": "ರ್ಜಿ ",
    "2719": "ಪ್ರಮುಖ",
    "2720": " ಹೃ",
    "2721": "ಿದರೆ ",
    "2722": "ರಾಧ",
    "2723": "ಾ ಆ",
    "2724": "ಜುಕ",
    "2725": " ಗೇ",
    "2726": " ಕ್",
    "2727": "ಂಜಾ",
    "2728": "ೇಲ್‌",
    "2729": "ಾಜ",
    "2730": " ಉತ್ತರ",
    "2731": " ಕಣ್ಣ",
    "2732": "ುವಂತ",
    "2733": "ಿ?\n\n",
    "2734": " ಶಿಕ್ಷಣ",
    "2735": "ಾತ್ಮಕ",
    "2736": "ಹೆಸ",
    "2737": " ರಸ್ತ",
    "2738": "ಎರಡೂ",
    "2739": "ಫ್ರ",
    "2740": " ಜ್ಞಾನ",
    "2741": "ವಾಗಿದ",
    "2742": "ಲಿರುವ",
    "2743": " ಬೇರ",
    "2744": " ಕಾರ್ಯಾ",
    "2745": "ಕರಿಗೆ ",
    "2746": " ಬದುಕ",
    "2747": " ಕರ",
    "2748": "ದಲ್ಲಿ ಅ",
    "2749": "ಮಳೆ ",
    "2750": " ವಿಶೇಷ",
    "2751": " ಜಿ",
    "2752": "ದಲ್ಲೂ",
    "2753": "ೌಡ",
    "2754": "ಮರಣ",
    "2755": "ಲ್ಡ್",
    "2756": "ಿ ಅಧ್ಯಕ್ಷ",
    "2757": "ಡಗ",
    "2758": "ೊಮ್ಮೆ ",
    "2759": " ಲಭ",
    "2760": "ಕಡ",
    "2761": "ದಂಡ",
    "2762": "ನಡೆದಿದೆ.\n\n",
    "2763": " ಇನ್ನ",
    "2764": "ನಿರೀಕ್ಷ",
    "2765": "ಪೂರ",
    "2766": "ು ಮ",
    "2767": "ವಿಭಿನ್ನ",
    "2768": " ಮಾಡುವ",
    "2769": "ಫಲಿತಾಂಶ",
    "2770": "ವಾಗುತ್ತದೆ.\n\n",
    "2771": "ಸುಪ್ರೀ",
    "2772": "ೆ’ ಎಂದು ",
    "2773": " ಮನುಷ್ಯ",
    "2774": "ೃಢ",
    "2775": "ಶಸ್ತಿ ",
    "2776": " ಬದಲಾವಣ",
    "2777": "ಾಗಿರುವ",
    "2778": ".\n\nಕ",
    "2779": "ವಿದೇಶ",
    "2780": "ಆಗ್ರಹ",
    "2781": "ಸೌ",
    "2782": " ಆಸ್ಪತ್ರೆಗೆ ",
    "2783": "ಸ್ಥಳೀಯ",
    "2784": "ು ಹಾಗೂ",
    "2785": "ಡು ",
    "2786": " ಬಳಿ ",
    "2787": " ಊ",
    "2788": "ಹುಡುಕ",
    "2789": "ಪಿ ",
    "2790": "ಸ್ಕೃ",
    "2791": " ಜಿಲ್ಲಾ",
    "2792": " ಒತ್ತ",
    "2793": "ಿ ನಡೆಸ",
    "2794": " ಮಾದರ",
    "2795": "ಕ್ಕೆ ಸಂಬಂಧಿಸಿದ",
    "2796": "ಕೊ",
    "2797": "ಮಾಡಲು ",
    "2798": "ನೇಹಿತ",
    "2799": "ುತ್ತಿವೆ.\n\n",
    "2800": " ಭರವ",
    "2801": " ಪ್ರಕ್ರಿಯ",
    "2802": "ಖ್ಯಾತ",
    "2803": "ರಸ್ತೆ ",
    "2804": "ರಾಜ್ಯ ಸರ್ಕಾರ",
    "2805": " ಕೊರ",
    "2806": "ಿಸಿಕೊಂಡಿದ್ದಾರೆ.\n\n",
    "2807": "ಖಚಿತ",
    "2808": " ಸಂಘಟ",
    "2809": "25",
    "2810": "ಭದ್ರ",
    "2811": "ನೆಗೆ ",
    "2812": "ದಲ್ಲಿಯೂ",
    "2813": "ತೆಯಿಂದ",
    "2814": "ಹಲವಾರು ",
    "2815": "ೈದರಾ",
    "2816": "ಜನರ",
    "2817": "ಈ ಸಂದರ್ಭದಲ್ಲಿ ",
    "2818": "ಳದ",
    "2819": "ಕಾರಿ ",
    "2820": "]\n\n",
    "2821": "ಿನಿಂದ",
    "2822": "ಪೋ",
    "2823": "ುತಿ ",
    "2824": "ಿ ವ",
    "2825": "ಪಾಲ್ಗೊಂಡ",
    "2826": "ವಾಗಿರುತ್ತದೆ.\n\n",
    "2827": "ರಾಮಯ್ಯ",
    "2828": "ಸ್ಕೃತ",
    "2829": "ಬ್ಬ್ಬ್ಬ್ಬ್ಬ್ಬ್ಬ್ಬ್ಬ್ಬ್ಬ್ಬ್ಬ್ಬ್ಬ್",
    "2830": "ುತ್ತೇನೆ.\n\n",
    "2831": " ಏಕ",
    "2832": " 9",
    "2833": "ರಸ",
    "2834": " ಗೃಹ",
    "2835": "ನಿಂತ",
    "2836": " ಆರ್ಥಿಕ",
    "2837": "60",
    "2838": " ನಡೆದ",
    "2839": "ಸ್ಥಳಕ್ಕೆ ",
    "2840": " ?\n\n",
    "2841": "ಿಸ್ಟ",
    "2842": "ನೆ.\n\n",
    "2843": "ಆಯ್",
    "2844": " ವಿಷಯದಲ್ಲಿ ",
    "2845": " ಚೆನ್ನ",
    "2846": "ೇಣ",
    "2847": "ಅಷ್ಟ",
    "2848": "ಸಿಬಿಐ",
    "2849": "ರಂಗ",
    "2850": " ಕೀರ್",
    "2851": " ನಟಿ ",
    "2852": "ಯುಕ್ತ",
    "2853": "100",
    "2854": "ವಾಗಲಿದೆ.\n\n",
    "2855": " ಸೃಷ್ಟ",
    "2856": "ನಿವಾರ",
    "2857": " ಬೇಡ",
    "2858": "ಚುನಾವಣೆ ",
    "2859": "ಂಪ್",
    "2860": " ಆಲ",
    "2861": "ಪತಿ ",
    "2862": "ಪಾತ್ರ",
    "2863": "ಲಿಷ್",
    "2864": "ಏನು ಮಾಡ",
    "2865": " ತು",
    "2866": " ಫಲಿತಾಂಶ",
    "2867": "ೆಗಾರ",
    "2868": " ನ್ಯಾಯಾಲಯ",
    "2869": "ವೇಷ",
    "2870": "ಅದರಿಂದ",
    "2871": "ನಾಲ್ಕು ",
    "2872": "ಸಂಖ್ಯ",
    "2873": "ಿನ್ನ",
    "2874": "ಲಾಗುತ್ತಿದೆ.\n\n",
    "2875": " ನಿಟ್ಟಿನಲ್ಲಿ ",
    "2876": " ನೋ",
    "2877": "ತನೆ ",
    "2878": "ಮನುಷ್ಯ",
    "2879": "ದ ಪ್ರ",
    "2880": " ಘ",
    "2881": "ಇರುವುದ",
    "2882": " ಉಂಟ",
    "2883": "ಿ ಅಭ",
    "2884": "ಸಿಎಂ",
    "2885": " ಆತ್ಮ",
    "2886": "ಕ್ಕೂ ಹೆಚ್ಚು ",
    "2887": "ಎರಡನೇ",
    "2888": "ಮ್ಸ್",
    "2889": " \"\"",
    "2890": "ಅಲ್ಲದೆ ",
    "2891": " ಟೆಸ್ಟ್",
    "2892": "ಕವಾಗಿ ",
    "2893": " ನಮಗೆ ",
    "2894": " ಕೈಗೊಳ್ಳ",
    "2895": "ು ಹೆಚ್ಚ",
    "2896": " ಕಡಿಮ",
    "2897": "ಸವ",
    "2898": " ಸಮಾಜ",
    "2899": "ಎಲ್ಲರ",
    "2900": "ವಿರುವ",
    "2901": "ಿತ್ತು\n\n",
    "2902": " ಮಾಡಲು ",
    "2903": "ಮೇಲೆ ",
    "2904": "ತೂ",
    "2905": "ಟಿಕ್",
    "2906": " ಮುಂದುವರ",
    "2907": "ೆ. ",
    "2908": "ುತ್ತೇನ",
    "2909": "ಚಾ",
    "2910": " ಬೆಲೆ ",
    "2911": "ಇದೀಗ",
    "2912": " ಹೇಳಿದ್ದಾರೆ.\n\n",
    "2913": "ಎಷ್ಟ",
    "2914": "ಬಾದ",
    "2915": "ಮೈ",
    "2916": "ಕ್ರೋಶ",
    "2917": " ಸತ್ಯ",
    "2918": "ಳೆ ",
    "2919": "ಇದರಿಂದಾಗಿ ",
    "2920": " ಬಸ್",
    "2921": "ಬೇಕು?\n\n",
    "2922": " ಸೂಚ",
    "2923": "ಸಭೆಯಲ್ಲಿ ",
    "2924": " ಆಡಳಿತ",
    "2925": "ುತ್ತದೆ\n\n",
    "2926": "ಒಳಗೊಂಡ",
    "2927": "ಲಾಗುವುದು.\n\n",
    "2928": "ಣಿ",
    "2929": "ಬಲ್",
    "2930": " ಜಾಲ",
    "2931": "ನೆನ",
    "2932": " ಡೀ",
    "2933": " ಹೂಡ",
    "2934": "ಲಾಗುತ್ತ",
    "2935": " ಯು",
    "2936": " ಪರಿಣಾಮ",
    "2937": "ಿದ್ದೆ.\n\n",
    "2938": "ಅರ್ಜ",
    "2939": " ತಾ",
    "2940": "ಮತ್ತೆ ",
    "2941": " ರಾಷ್ಟ್ರೀಯ",
    "2942": " ಸ್ಮಾರ",
    "2943": "ಹಂಚ",
    "2944": " ಬಹು",
    "2945": "ತಂತ್",
    "2946": " ಗೊತ್ತ",
    "2947": " ರಾಹುಲ್",
    "2948": "ಆಕೆಯ",
    "2949": " ಈಗ",
    "2950": " ಡೆ",
    "2951": "18",
    "2952": "13",
    "2953": "ಕುಸ",
    "2954": "ಅವುಗಳನ್ನು ",
    "2955": "್ಯು",
    "2956": " ಹಾಡ",
    "2957": "ೆದಾರ",
    "2958": "ಗಳು.\n\n",
    "2959": "ವಿದ್ಯಾರ್ಥಿಗಳು ",
    "2960": "ೆ--",
    "2961": "ನ್ನಾಗಿ ",
    "2962": "ಬಿ ",
    "2963": " ಯಾದವ್",
    "2964": "ರಾಜ್",
    "2965": "ಅವು ",
    "2966": "ಸಾಯ",
    "2967": "ಲಾಭ",
    "2968": "ೊನಾ",
    "2969": " ದೂರ",
    "2970": "ಿದ್ರ",
    "2971": "ಎಷ್ಟು ",
    "2972": "ಿರಬೇಕು.\n\n",
    "2973": "ಧರ",
    "2974": "ಭಾಗವಹಿಸಿದ್ದರು.\n\n",
    "2975": "ಭಾರಿ ",
    "2976": "ಕ್ಕಾಗ",
    "2977": " ಹಿಂದೆ ",
    "2978": "ತಕ್ಕ",
    "2979": "ು ಬಂದ",
    "2980": " ಪಂಚ",
    "2981": "ಬಿಡುಗಡೆ ಮಾಡ",
    "2982": " ದೃಷ್ಟ",
    "2983": "ಬೋ",
    "2984": " ಬೈಕ್",
    "2985": "ಂಗ್ರಹ",
    "2986": "ಸಂಪೂರ್ಣವಾಗಿ ",
    "2987": "ಲ್ಲದೆ ",
    "2988": "ೇಜ್ರಿ",
    "2989": " ವಿರೋಧ",
    "2990": "ಪ್ರಯಾಣ",
    "2991": " ವಿದ್ಯಾರ್ಥಿಗಳು ",
    "2992": "ಕ್ಷಮ",
    "2993": "ಇಂಗ್ಲಿಷ್",
    "2994": "ಅವನನ್ನು ",
    "2995": "ೀಸ್",
    "2996": "ುತ್ತಿದ್ದರು.\n\n",
    "2997": " ಪಾಲ",
    "2998": "ಂಗಾಳ",
    "2999": "ಾಗ್ರ",
    "3000": "ುತ್ತಲೇ",
    "3001": " ಉದ್ಯೋಗ",
    "3002": "ಚಿನ್ನ",
    "3003": " ಪ್ರತಿಭಟ",
    "3004": "್ವ",
    "3005": " ರೀತಿಯಲ್ಲಿ ",
    "3006": "ಬರ್",
    "3007": "ದೊಂದಿಗೆ ",
    "3008": " ತೀರ್ಪ",
    "3009": "ಿ ಅವರು ",
    "3010": "ಲೆಕ್",
    "3011": "ಮ್ಯ",
    "3012": " ಶ್ರೀ",
    "3013": "ಸಾಕ್ಷ",
    "3014": "ುವುದರಿಂದ",
    "3015": "ಾಳೆ.\n\n",
    "3016": "ರಿನಿಂದ",
    "3017": " ಪಾರ",
    "3018": "ಾದರೆ ",
    "3019": "ಯಶಸ್",
    "3020": "ಕಡಿಮೆ ",
    "3021": " ಎನ್",
    "3022": "ನ್​",
    "3023": "ಧಿಯಲ್ಲಿ ",
    "3024": " ಪೂ",
    "3025": "ಯಿಂದ",
    "3026": " ಟ್ವಿ",
    "3027": "ಿರುವುದಾಗಿ ",
    "3028": "ಕುರಿತ",
    "3029": "ಥ್",
    "3030": "ಪನ್",
    "3031": "ಣೆ ನಡೆಸ",
    "3032": "ವಾಗಿ,",
    "3033": "ಶಿಕ್ಷ",
    "3034": "ಿಕೊಂಡ",
    "3035": "ಜನಾ",
    "3036": "ದೆಹಲಿ ",
    "3037": "ಪಂ",
    "3038": "ತೊಡಗ",
    "3039": "ು-",
    "3040": "ನಾಗಿದ್ದ",
    "3041": "ೇಶ",
    "3042": "ತನಿಖೆ ",
    "3043": "ಮೂರ್",
    "3044": "ಕಲಿಯ",
    "3045": "ಯಾನ",
    "3046": "ಿವೇಶ",
    "3047": "ಸನ್",
    "3048": "-19",
    "3049": " ಅಂದ",
    "3050": " ಕೂಡಾ",
    "3051": "ತಿಳಿಯ",
    "3052": " ಹಿನ್ನೆಲ",
    "3053": "ಇದುವರ",
    "3054": "ಂಘ",
    "3055": "ೆ’",
    "3056": "ಉದ್ಯೋಗ",
    "3057": " ವಿರುದ್ಧದ",
    "3058": "ನಿಯಂತ್ರ",
    "3059": "ಮೆರಾ",
    "3060": " ಪ್ರಕರಣಗಳು ",
    "3061": " ಗ್ರ",
    "3062": "ುಗೊಳಿಸ",
    "3063": " ವೇಗ",
    "3064": " ಮೋ",
    "3065": " ಬೀ",
    "3066": " ವಿದ್ಯ",
    "3067": " ರೂಪಾಯ",
    "3068": "ರ ಬಗ್ಗೆ ",
    "3069": "ಕೆಲವರು ",
    "3070": "ಿಗೆ ಹೋಗ",
    "3071": "ಿದ್ದಾರೆ.\"\n\n",
    "3072": "ಪ್ರತಿಯೊಬ್ಬ",
    "3073": "ತೆಗಳ",
    "3074": " ನಿಯಮ",
    "3075": " ಪ್ರಸ",
    "3076": "ಯೋಚ",
    "3077": "ನೆ ನಡೆಸ",
    "3078": "ನ್ನತ",
    "3079": "ಮಂಡ",
    "3080": "ಜೊತೆಗೆ ",
    "3081": " ಸಂದ",
    "3082": "ಶ್ರಮ",
    "3083": "ಎನ್‌",
    "3084": "ತಿಳ",
    "3085": "ಬೆಂಗಳೂರು",
    "3086": "28",
    "3087": " ತಿಂ",
    "3088": "ಜಮ್ಮ",
    "3089": ".5",
    "3090": "ದೀಪ",
    "3091": " ಕಷ್ಟ",
    "3092": " ಸಾಮಾನ್ಯ",
    "3093": "ಸಾಮಾಜಿಕ",
    "3094": "ರಾತ್ರ",
    "3095": "ವಿಗೆ ",
    "3096": "ಿತ್ತು ",
    "3097": " ಮನೋಭಾವ",
    "3098": "ಿಸಿಲ್ಲ.\n\n",
    "3099": "ನೀಡುವ",
    "3100": "ಿಕರು ",
    "3101": "ಚೆನ್ನಾಗಿ ",
    "3102": "ತೀರ್",
    "3103": "ಲಿಕ್",
    "3104": "ಹಿಡಿದ",
    "3105": "ಮಹಾ",
    "3106": " ನಿಯಂತ್ರ",
    "3107": " ಅಲ್ಲ.\n\n",
    "3108": "ಿದ್ದರಾಮಯ್ಯ",
    "3109": " ಯಾರ",
    "3110": "ಮರ್",
    "3111": " ಜೊತೆಗೆ ",
    "3112": "ನಟಿ ",
    "3113": "್ಯಾಸ",
    "3114": " ಗೆದ್ದ",
    "3115": "ತಲುಪ",
    "3116": "್ತ",
    "3117": "ಚೀ",
    "3118": "ಳಗೆ ",
    "3119": "ು ಹೇಗೆ?\n\n",
    "3120": "ನೀನು ",
    "3121": " ಸಮಿತ",
    "3122": "ಯಾಕೆ ",
    "3123": "ಒಂದೇ",
    "3124": "ಲ್ಲಿದ್ದ",
    "3125": "ಮೇಶ್",
    "3126": "?\"\n\n",
    "3127": "ವುಗಳ",
    "3128": "ೆಂದರೆ ",
    "3129": "ಫೋ",
    "3130": "ುತ್ತದೆ ",
    "3131": " ಪಂದ್ಯದಲ್ಲಿ ",
    "3132": "ಿ ಪೊಲೀ",
    "3133": " ಕರ್ತನ",
    "3134": " ವೈದ್ಯ",
    "3135": " ಇದನ್ನು ",
    "3136": "ಿಕೆಗಳನ್ನು ",
    "3137": " ಚಾ",
    "3138": "ಲ್, ",
    "3139": " ವ್ಯಾಪಾರ",
    "3140": "ವಿಶ್ವದ",
    "3141": "ೆಯಾಗಿ ",
    "3142": " ಸಂಪೂರ್ಣ",
    "3143": " ತೆ",
    "3144": "ಎಲ್ಲವೂ",
    "3145": "ಸಿಸಿ ",
    "3146": " ಕಾರ್ಯದರ್ಶಿ ",
    "3147": "ಚಿಕಿತ್ಸ",
    "3148": "ಮಲ",
    "3149": "ಲಕ್ಷಣ",
    "3150": "ಪ್ರಸ",
    "3151": " ಮಾಡಿ ",
    "3152": "ು.",
    "3153": "ಅದರಲ್ಲಿ ",
    "3154": "ೂತನ",
    "3155": " ನದ",
    "3156": "ದವರ",
    "3157": " ನಿರ್ದೇಶನ",
    "3158": " ಸಾವ",
    "3159": "ಷಿ ",
    "3160": " ಬಗ",
    "3161": "ಡ್ರ",
    "3162": "ಿರುತ್ತದ",
    "3163": "ಪ್ಲ",
    "3164": "ಕರನ್ನು ",
    "3165": "ಪ್ರಮಾಣ",
    "3166": "ಿಗಳಲ್ಲಿ ",
    "3167": "ಅಭಿವೃದ್ಧ",
    "3168": "ಆದರೆ ಈ",
    "3169": "ಯೆಹೋವ",
    "3170": " ರೋಗ",
    "3171": "ದಾಳ",
    "3172": "ದಂತ",
    "3173": "ಭು",
    "3174": "ವ್ಯವಸ್ಥ",
    "3175": "ಿನಂದ",
    "3176": "ನಿರಾಕರ",
    "3177": "ಖಾಸಗ",
    "3178": "ಮಾತಾಡ",
    "3179": " ಹತ್ಯ",
    "3180": " ತೋ",
    "3181": "ವಾಸಿ",
    "3182": " ಸಮುದಾಯ",
    "3183": "ಮಾಧ್ಯಮ",
    "3184": "ತಿದ",
    "3185": "ಾಂಶ",
    "3186": "ಶೀರ್",
    "3187": " ​ —⁠",
    "3188": "ು ಕ",
    "3189": " ಪ್ರದೇಶದ",
    "3190": "ಲೆಕ್ಟ್ರ",
    "3191": " ವರ್ಗ",
    "3192": "ಿಕೆಟ್",
    "3193": " ಪ್ರವಾಸ",
    "3194": "ರಳ",
    "3195": "ೊಲ",
    "3196": "ಆದ್ರೆ ",
    "3197": " ಜಯ",
    "3198": " ಭಾಷಣ",
    "3199": ", ಈ",
    "3200": "ಂ ಇಂಡಿಯಾ",
    "3201": "ಆತಂಕ",
    "3202": " ಖಾತ",
    "3203": "ವೈಯಕ್ತಿಕ",
    "3204": "ರು.\"\n\n",
    "3205": " ಪ್ರಗ",
    "3206": "ಾರ್‌",
    "3207": "ಇಂದು ",
    "3208": "ತೆ",
    "3209": "ಅವಳು ",
    "3210": "ಮೋ",
    "3211": "ಹೌ",
    "3212": "ಸುಳ್ಳ",
    "3213": "ವಾಬ್ದ",
    "3214": "ಾರ್ಹ",
    "3215": "ಎಚ್ಚ",
    "3216": "ಗಳಾದ",
    "3217": " ಸಂಭವ",
    "3218": "ಮುಂದೆ ",
    "3219": "ುಳ್ಳ",
    "3220": " ಆಯ್",
    "3221": "ಸಾವ",
    "3222": " ಖಾ",
    "3223": "ಭವಿಷ್ಯ",
    "3224": "ಳನ್ನು ",
    "3225": "ನಿರ",
    "3226": " ಅಧಿಕಾರಿ ",
    "3227": "ೇಮ",
    "3228": "ತ್ಪನ್ನ",
    "3229": " ಮಾರಾಟ",
    "3230": " ಮಾಡಿದ್ದಾರೆ.\n\n",
    "3231": "ಜರಾ",
    "3232": " ಆಸ್ಪತ್ರ",
    "3233": " ಅತ್ಯಂತ",
    "3234": " ಕೋರ್ಟ್",
    "3235": " ಇಲಾಖೆ ",
    "3236": " ಒಳ್ಳೆಯ",
    "3237": " ಮುಸ್ಲಿ",
    "3238": "ಕಾಲೇಜ",
    "3239": " ಹಾ",
    "3240": " ಪಡೆದ",
    "3241": "ಿದ್ದಾರೆ ",
    "3242": "ಿಸಲಾಗಿದೆ ಎಂದು ",
    "3243": "ಪತ್ತ",
    "3244": " ಅಗ",
    "3245": "ಹಿತ್ಯ",
    "3246": "ಧಿಕಾರಿ ",
    "3247": "ನಿಲ್ಲ",
    "3248": " ಏನು?\n\n",
    "3249": "ವಿಶ್ವಾಸ",
    "3250": " ದರ",
    "3251": "ಕೋರ್",
    "3252": "ಪುತ್ರ",
    "3253": "ಣಿ ",
    "3254": "ುತ್",
    "3255": " ಸರ್",
    "3256": "70",
    "3257": "ಪತಿ",
    "3258": "ಮುಖ್ಯಮಂತ್ರ",
    "3259": "ತಾಯ",
    "3260": "ಪುಟ",
    "3261": "ಖಾನ್",
    "3262": " ಪ್ರತಿಕ್ರಿಯ",
    "3263": " ಹಬ್ಬ",
    "3264": "ಅಂಗ",
    "3265": "ನ್ಯಾಸ",
    "3266": " ಹೌ",
    "3267": "ಟಿವ",
    "3268": "ತೆಗಳನ್ನು ",
    "3269": "ಮಧ್ಯ",
    "3270": "ಸಮಾಧಾನ",
    "3271": " ವಲ",
    "3272": " ಜಾಲತಾಣ",
    "3273": "ವು, ",
    "3274": "ಸರಳ",
    "3275": " ಚಟುವಟ",
    "3276": "ೋ?\n\n",
    "3277": "ಿಕೆ ಮಾಡ",
    "3278": "ೀವ್",
    "3279": "ಂಡರ್",
    "3280": "ಉತ್ಪಾದ",
    "3281": " ಸಲ್ಲ",
    "3282": "ಂತಾದ",
    "3283": "ೀನಾಮೆ ",
    "3284": "ಸುಜುಕ",
    "3285": " ಸ್ಥಳೀಯ",
    "3286": "ಿದ್ದೇವ",
    "3287": " ಸಾಮಾಜಿಕ",
    "3288": "ಗ್ನಿ",
    "3289": "ಗ್ನಿಶ",
    "3290": "ಗ್ನಿಶಾಮ",
    "3291": "ಗ್ನಿಶಾಮಕ",
    "3292": " ಚಂದ್ರ",
    "3293": "ಧಾರಣ",
    "3294": "ೇರಿ ",
    "3295": "ಮಂದಿ ",
    "3296": "ಲಾರ",
    "3297": "ೆ ಎಂದ",
    "3298": "ಟೊ",
    "3299": " ಬರುತ್ತ",
    "3300": "ಸೈ",
    "3301": "’\n\n",
    "3302": "ೀಕರಣ",
    "3303": " ಇತ್ತ",
    "3304": "ಫಿ",
    "3305": " ವಿಡಿಯೋ",
    "3306": "ರಕ್ಷಣಾ",
    "3307": "ೀರ್ಘ",
    "3308": "ಿತವಾಗ",
    "3309": "ೇಶ್‌",
    "3310": "ಕರ್ಯ",
    "3311": " ನಾಯಕರು ",
    "3312": "ಬೀಳ",
    "3313": "ತಿಂಗಳ",
    "3314": "ಗಳು, ",
    "3315": "ಆಹಾರ",
    "3316": "ಉದಾಹರಣೆಗ",
    "3317": " ರಾಮ",
    "3318": "ಸ್‌ನಲ್ಲಿ ",
    "3319": "ಶಸ್ತ",
    "3320": "ದರೆ ",
    "3321": "ಿದ್ದಾನೆ.\n\n",
    "3322": " ವಿರಾಟ್ ಕೊಹ್",
    "3323": "ಲಿ, ",
    "3324": "ಸಚಿವ",
    "3325": " ಅಲ",
    "3326": "ೆಲ್ಲರೂ",
    "3327": "ದಿಲ್ಲ",
    "3328": " ಮಾತನಾಡ",
    "3329": "ಾರೆ ",
    "3330": " ಪ್ರಾಣ",
    "3331": " ಸುಮಾರು ",
    "3332": "ಂತೆಯೇ",
    "3333": " ಮುಂದೆ ",
    "3334": "ವು,",
    "3335": " ಕಾರು ",
    "3336": " ಗುರ",
    "3337": "ವಿಭಾಗ",
    "3338": " ಸಂಖ್ಯೆ ",
    "3339": "ಾಯತ್",
    "3340": "ಹಣಕಾ",
    "3341": "ನಲ್",
    "3342": " ಪುಸ್ತಕ",
    "3343": "ವಿದ್ದ",
    "3344": " ಸಂಗೀತ",
    "3345": " ಅರ್ಜ",
    "3346": "ಪ್ರತ್ಯೇಕ",
    "3347": "ಸಂವಿಧಾನ",
    "3348": "''",
    "3349": "ರಿಸಲು ",
    "3350": "ಬೈಬಲ್‌",
    "3351": "ದ್ವಿ",
    "3352": " ಸಹಕಾರ",
    "3353": "ನೆ ಮತ್ತು ",
    "3354": "ದೃಷ್ಟ",
    "3355": "ತೆ ಮತ್ತು ",
    "3356": " ಮಕ್ಕಳು ",
    "3357": "ಶಾಲಾ",
    "3358": "ಿಸಿವೆ.\n\n",
    "3359": "ಮತದಾನ",
    "3360": " ಮತ್ತು ಕ",
    "3361": "ಯೋತ್ಪಾದ",
    "3362": "ದೆಹಲಿಯ",
    "3363": "ದ್ಯಮ",
    "3364": " ವಿದ್ಯಾರ್ಥಿಗಳ",
    "3365": "ಪ್ರಿಯಾ",
    "3366": "ಲ್ವಾ",
    "3367": "ಬಿದ್ದ",
    "3368": " ಪ್ರಧಾನಿ ಮೋದ",
    "3369": "ುತ್ತವ",
    "3370": "ಆಲ್",
    "3371": " ಪ್ಲಾ",
    "3372": " ಯೆಹೋವನ",
    "3373": " ಬ್ರ",
    "3374": " ಥ",
    "3375": "ಕರ್ಷ",
    "3376": "ಂತೂ",
    "3377": "ುವುದು ಎಂದು ",
    "3378": " ಯಾವುದ",
    "3379": "ಏಕ",
    "3380": "ಭೇಟಿ ನೀಡ",
    "3381": "ಿದ್ದವು.\n\n",
    "3382": "ಬಹಿರಂಗ",
    "3383": " ನಿಗ",
    "3384": "ಪೊಲೀಸರ",
    "3385": "ಿದೆ.\n\nಇದು ",
    "3386": "ಹಿತ್",
    "3387": "ಸಾಂ",
    "3388": " ರಾಷ್ಟ್ರ",
    "3389": " ಲಭ್ಯ",
    "3390": "ಕೌ",
    "3391": " ತಿಳಿಸಿದ್ದಾರೆ.\n\n",
    "3392": "ತೆ\n\n",
    "3393": "ಮಾರ್ಗ",
    "3394": " ವೆಚ್ಚ",
    "3395": "ಇಂಥ",
    "3396": "ಿಕವಾಗಿ ",
    "3397": "ೃಶ್ಯ",
    "3398": "ಭಾರತಕ್ಕೆ ",
    "3399": "ಾ?\n\n",
    "3400": " ವಚನ",
    "3401": "ಿ ಹಾಕ",
    "3402": "ಅದಕ್ಕಾಗಿ ",
    "3403": "ರದ್ದ",
    "3404": "ಲಾಯಿತ",
    "3405": "ಶಾಂತ",
    "3406": " ಕಾಣ",
    "3407": " ಅಧಿಕಾರಿಗಳು ",
    "3408": " ನಾಲ್",
    "3409": "ಿದೆ’ ಎಂದು ",
    "3410": "ಚಾಲ",
    "3411": ". ಎಸ್",
    "3412": "ೂರಪ್ಪ",
    "3413": " ವಿಜ್ಞಾನ",
    "3414": "ಎಚ್",
    "3415": " ವಿಷಯಗಳನ್ನು ",
    "3416": "..",
    "3417": "ಪ್ರಸ್ತುತ",
    "3418": "ಜಿಲ್ಲೆಯ",
    "3419": "ಅಧಿಕಾರಿಗಳು ",
    "3420": "ಿಡ",
    "3421": "ಿಸಲಾಗುತ್ತದೆ.\n\n",
    "3422": "ರ್ಹ",
    "3423": " ಸ್ಥಿತಿ ",
    "3424": " ಉತ್ಪಾದ",
    "3425": " ಪ್ರಶ್",
    "3426": "ಲ್ಲಿನ",
    "3427": "ಿರಲಿಲ್ಲ",
    "3428": "ಿಯರು ",
    "3429": "ರೈತ",
    "3430": "ಪಾಧ್ಯಕ್ಷ",
    "3431": "ಷ್ಯಾ",
    "3432": "ಪ್ರಧಾನಿ ಮೋದ",
    "3433": "ಲ್ಡ",
    "3434": "ುತ್ತಾನ",
    "3435": "ಅಧಿಕ",
    "3436": "ಸಂತ",
    "3437": " ಸೀ",
    "3438": "ೆಗಳು ಮತ್ತು ",
    "3439": "ಹಾಗೆಯೇ",
    "3440": " ಆತನ",
    "3441": "ತಿಥ",
    "3442": " ಕರ್ತ",
    "3443": "ಇಲಾಖ",
    "3444": "ವಾರ್",
    "3445": "ಬಣ್ಣ",
    "3446": " ಪುನ",
    "3447": " ಸನ್ನ",
    "3448": "ಬಹುದು?\n\n",
    "3449": " ಹೇಳಿದರು.\n\n",
    "3450": "ಿಸಲಿದ್ದಾರೆ.\n\n",
    "3451": "ಃಖ",
    "3452": "ಚಿಂತ",
    "3453": " ಲೇ",
    "3454": " ಹೆಸರು ",
    "3455": "ಸಲ್",
    "3456": " ನ್ಯೂ",
    "3457": "ಸ್ವಚ್ಛ",
    "3458": "ರೆ, ",
    "3459": " ಮುಂಚ",
    "3460": "ಾಲ್",
    "3461": " ಬಿಡ",
    "3462": " ಶಕ್ತಿಯ",
    "3463": "ವೇದ",
    "3464": " ಮದ",
    "3465": "ಟಿಗ",
    "3466": "ಸ್ಸಿನ",
    "3467": "ಡ್ಡಿ ",
    "3468": " ಅಧ",
    "3469": "ಲಿಂಗ",
    "3470": " ಕಳೆದುಕೊಂಡ",
    "3471": " ವಾಗ",
    "3472": "ಅವುಗಳ",
    "3473": "ಸಹಾಯ ಮಾಡ",
    "3474": "ಕ್ರೀ",
    "3475": "ೌಲನು ",
    "3476": "ಮೇ",
    "3477": " ಮಾಧ್ಯಮ",
    "3478": "ಬಿಸ",
    "3479": " ಪೊಲೀಸ್ ಠಾಣೆಯಲ್ಲಿ ಪ್ರಕರಣ ದಾಖಲಾಗಿದೆ.\n\n",
    "3480": "ಸುವಿನ",
    "3481": "ಫೆ",
    "3482": "ಾರಾಷ್ಟ್ರೀಯ",
    "3483": "ಹರ",
    "3484": " ಸರಣ",
    "3485": "ೆ ಎಂಬ",
    "3486": "ಪರಿಸ್ಥಿತ",
    "3487": "ಕ್ಕೆ ಅ",
    "3488": " ಭದ್ರ",
    "3489": "ತಮಿಳ",
    "3490": " ಅಭಿವೃದ್ಧಿ ",
    "3491": "ಿಸಿ\n\n",
    "3492": "ವೆಂದು ",
    "3493": " ಬೆಳ",
    "3494": "ಉತ್ತೇಜ",
    "3495": "ಎಲ್",
    "3496": "ಮೃ",
    "3497": "ಾರಾಯ",
    "3498": "ಳಿಗ",
    "3499": "ಅದೇ",
    "3500": " ಬಾಲಿವುಡ್",
    "3501": "ುವುದಾಗಿ ",
    "3502": "ಹದ",
    "3503": "ಮನ್ನ",
    "3504": "ೇಸ್",
    "3505": "ೀರಾ?\n\n",
    "3506": " ಕಥ",
    "3507": "ಸ್ಕೃತಿಕ",
    "3508": "ಸಭೆ ಚುನಾವಣ",
    "3509": " ಪಟ್ಟಣ",
    "3510": " ಸಮಸ್ಯೆಗಳ",
    "3511": " ಸಾಕಷ್ಟು ",
    "3512": "ಲೆಯ",
    "3513": " ಮುಗ",
    "3514": "ಯನ್ನು ",
    "3515": " ಸಂಗಡ",
    "3516": " ಹೈ",
    "3517": " ಶಿವ",
    "3518": " ತಂಡದ",
    "3519": " '",
    "3520": "ಸಮಾಜ",
    "3521": "ವಾಲಯದ",
    "3522": "ಕೂಡಾ",
    "3523": " ಆಸ",
    "3524": "ನ್ ನ",
    "3525": "ದೇವರು ",
    "3526": "ದ ಹ",
    "3527": " ಮುಂಬೈ",
    "3528": " ನಾವ",
    "3529": "ಮೀಣ",
    "3530": " ನಾನ",
    "3531": " ನೀರು ",
    "3532": "ಪಕ",
    "3533": "ಗಳಿಗಾಗಿ ",
    "3534": " ಪಾಪ",
    "3535": "23",
    "3536": "ರೇನು?\n\n",
    "3537": "ಶಕ್ತಿ ",
    "3538": " ಯೋಗ",
    "3539": "ನಿರ್ಮಾಣ",
    "3540": "ೀಡ್",
    "3541": "ಹೇಗ",
    "3542": "ೆಗಿನ",
    "3543": "ರುಳ",
    "3544": "ಕರ್ತನ",
    "3545": "ಿದೆ.\n\nಈ",
    "3546": "94",
    "3547": "ನಾತ್ಮಕ",
    "3548": " ಸಂದರ್ಭದಲ್ಲಿ ",
    "3549": "ಅಲ್ಲದೇ",
    "3550": "ೀಪ",
    "3551": "ಷ್ಟೆ.\n\n",
    "3552": "ಸ್ವಾಮಿ ",
    "3553": "ರಂದು ",
    "3554": "್ಮ",
    "3555": "ಸ್ಪರ",
    "3556": "ಸಿಕ",
    "3557": " ಒಪ್ಪಂದ",
    "3558": "ಿನಂತೆ ",
    "3559": " ಕಡಿಮೆ ",
    "3560": "ರೊಂದಿಗೆ ",
    "3561": "ಿಸಿದ್ದು, ",
    "3562": "11",
    "3563": "ಪೊಲೀಸರಿಗೆ ",
    "3564": "ಏನೂ",
    "3565": "ಲ್ಲಿ,",
    "3566": ".0",
    "3567": "ವಿಜ",
    "3568": "ನಿತ್ಯ",
    "3569": "ಕಾನೂನು ",
    "3570": "ಪ್ರಾರಂಭ",
    "3571": "ಿದ್ದಾನ",
    "3572": "ಶಃ",
    "3573": " ಹಾಗು ",
    "3574": "ತೆಲುಗ",
    "3575": "ಉಚಿತ",
    "3576": " ಮಾರುಕಟ್ಟೆಯಲ್ಲಿ ",
    "3577": "ದ ವಿರುದ್ಧ",
    "3578": "ಜ್ಜ",
    "3579": " ಹಿಂ",
    "3580": " ಜಾಗ",
    "3581": " ವಿಶ್ವವಿದ್ಯ",
    "3582": " ಗುರುತ",
    "3583": " ಆದಾಯ",
    "3584": " ಇನ್ನೂ",
    "3585": " ಇಬ್ಬರು ",
    "3586": "ನವದೆಹಲಿ",
    "3587": " ವೃತ್ತ",
    "3588": "ೊಡೆದ",
    "3589": " ಎರಡೂ",
    "3590": "ಗಳು",
    "3591": "ಪ್ತಿಯಲ್ಲಿ ",
    "3592": "ಸಾವಿರ",
    "3593": "ಏಕೆಂದರೆ ",
    "3594": "ೊಂದರೆ ",
    "3595": " ದೇವರು ",
    "3596": "ಘಾನ",
    "3597": "ಕಾಪಾಡ",
    "3598": "ಮನವಿ ಮಾಡ",
    "3599": "ಸಹಜ",
    "3600": " ಮೃತ",
    "3601": ". ಕ",
    "3602": " ಹಿನ್ನೆಲೆಯಲ್ಲಿ ",
    "3603": " ಪಾಕಿಸ್ತಾನ",
    "3604": "ಡಿಯೂರಪ್ಪ",
    "3605": "ಿವೆ ಎಂದು ",
    "3606": " ಕೋರ್",
    "3607": "ಿಸ್ತರಿಸ",
    "3608": "ಏರ್",
    "3609": "ುತ್ತಿದೆ\n\n",
    "3610": "ಿಸುವಂತೆ ",
    "3611": "ಡಾ.\n\n",
    "3612": "ನಕ",
    "3613": " ಸಾಧನ",
    "3614": " ಎಚ್ಚರಿಕ",
    "3615": ", ಪ್ರ",
    "3616": "ವನ್ನು ಹೊಂದ",
    "3617": " ಚಾಲ",
    "3618": " ಡಿ",
    "3619": "’ ಎಂದರು.\n\n",
    "3620": "ೋದ್ಯ",
    "3621": " ತಾಯ",
    "3622": "ಫ್ರಾ",
    "3623": " ಅಂತಿಮ",
    "3624": "ವೇಳ",
    "3625": "ನಂದ",
    "3626": "ಚಿಕ್ಕ",
    "3627": "ಆಸ್ಟ್ರೇಲ",
    "3628": " ನಿರ್ದೇಶಕ",
    "3629": "ಲಿಯನ್",
    "3630": "ಲಿದೆ ಎಂದು ",
    "3631": "ಂತು.\n\n",
    "3632": " ಹೀ",
    "3633": "ಆಸ",
    "3634": "ಫೋನ್",
    "3635": "ಕತ್ತ",
    "3636": "ಪ್ರದ",
    "3637": "ವೇಗ",
    "3638": "ಾಲಿ",
    "3639": "ೋಪ",
    "3640": "ಂಭಾಗ",
    "3641": "90",
    "3642": "ಡು",
    "3643": "ದನ್ನು ",
    "3644": "ವಶಕ್ಕೆ ",
    "3645": " ಲೇಖ",
    "3646": "ಡ್ಡಾಯ",
    "3647": "ಅತ್ಯುತ್ತಮ",
    "3648": "ೆ ನೀಡ",
    "3649": "ಇಡ",
    "3650": "ಕಂಡು",
    "3651": "ಮನೆ ",
    "3652": "ತಿ\n\n",
    "3653": "ಮಕ್ಕಳು ",
    "3654": "ನೆಲ",
    "3655": "ರುಗ",
    "3656": " ನಾಯಕರ",
    "3657": "ಸಂಸ್ಥ",
    "3658": "ಡಿಯುವ",
    "3659": "ಹಾಗೆ ",
    "3660": " ತಿಂಗಳು ",
    "3661": " ಹೊರಡ",
    "3662": "ಲಾಕ್",
    "3663": " ಫೈನ",
    "3664": " ಜೀವ",
    "3665": "ಾಸ್",
    "3666": " ಪಕ್ಷದ",
    "3667": "ಟರ್‌",
    "3668": "ಸರಿಯಾದ",
    "3669": "ೋಟಾರ್",
    "3670": "ಕ್ರೈಸ್ತ",
    "3671": "ತಲೆ",
    "3672": "ೊಸ್ತ",
    "3673": "ೊಸ್ತಲ",
    "3674": ".\n\nಅ",
    "3675": "ವರ್‌",
    "3676": " ಕೋಟ",
    "3677": "ಾರ್ಜ್",
    "3678": "ೆರೆ",
    "3679": "ಶ್ಚರ್ಯ",
    "3680": "ವಾಗತ",
    "3681": "ನೆಗಳ",
    "3682": "ಿಸಿಐ",
    "3683": "ರಾವ",
    "3684": "[…",
    "3685": "ಣಿಜ್ಯ",
    "3686": "ಡಿಯೊ",
    "3687": "ಕೊಂಡ",
    "3688": "ಖರೀದ",
    "3689": "ತನಿಖೆ ನಡೆಸ",
    "3690": "ಪ್ರಾಯಪಟ್ಟ",
    "3691": "ಾಗುವ",
    "3692": "ೀಲಂಕಾ",
    "3693": "್ಯಾರ",
    "3694": "ಕರೆಯ",
    "3695": "ನಿರ್ದೇಶನ",
    "3696": " ಸಂಸ್ಥೆ ",
    "3697": " ಆ್ಯ",
    "3698": " ನೋಟ",
    "3699": "29",
    "3700": "ನಿ ",
    "3701": "ೆ, ಮತ್ತು ",
    "3702": "ಇಡೀ",
    "3703": "ಣೆ ಮಾಡ",
    "3704": "ವಾಯಿತು.\n\n",
    "3705": "ೇಜ್ರಿವಾಲ್",
    "3706": "?\n\nಈ",
    "3707": "ನಾಕಾರ",
    "3708": "ಾಗುತ್ತದೆ.\n\n",
    "3709": "ಬೈಲ್",
    "3710": "ಬಿಜೆಪಿಗೆ ",
    "3711": "ದಿಂದಾಗಿ ",
    "3712": "ಿಸ್ತನ",
    "3713": "ಹೇಳುವ",
    "3714": "ಹಿರಿಯ",
    "3715": "ದೂ",
    "3716": " ಕೌ",
    "3717": " ಚುನಾವಣೆಯಲ್ಲಿ ",
    "3718": " ನಿವ",
    "3719": "ದಲ್ಲಿ ಆ",
    "3720": " ಪೈ",
    "3721": "ರ್, ",
    "3722": "500",
    "3723": "ವರು.\n\n",
    "3724": " ಹತ್ತಿರ",
    "3725": " ಗೃಹ ಸಚಿವ",
    "3726": " ಅಮಿತ್",
    "3727": "ಎಂಬುದು ",
    "3728": " ಸಂಘ",
    "3729": "ಮುನ್ನ",
    "3730": " 201",
    "3731": "ಹಳ್ಳ",
    "3732": "ಗೆ",
    "3733": "ಅಪಘಾತ",
    "3734": "ಭಾಶಯ",
    "3735": " ಆತ",
    "3736": "ಗೆದ್ದ",
    "3737": "ೀಠ",
    "3738": "ಯಾರು?\n\n",
    "3739": "ಪತ್ರಿಕ",
    "3740": "ಉಳಿಸ",
    "3741": ", ಮೊ",
    "3742": "ದೀಪ್",
    "3743": "ಹಮ್ಮದ್",
    "3744": "ಪಡಿಸಿ ",
    "3745": "ಮುಕ್ತ",
    "3746": "ಿಸಲ್ಪಡ",
    "3747": " ಅಡಿಯಲ್ಲಿ ",
    "3748": "ಸ್ಯಾ",
    "3749": "ಕರ್ತರು ",
    "3750": " ಆಗಿರುವ",
    "3751": "ಕೇರಳ",
    "3752": "್ಯಾಧ್ಯಕ್ಷ",
    "3753": "ರೋಗ",
    "3754": "ಲಂಬ",
    "3755": "ಎಂಜ",
    "3756": "ಪ್ರಾರ್ಥ",
    "3757": "ಬದುಕ",
    "3758": "ನಷ್ಟ",
    "3759": "ನೊಂದಿಗೆ ",
    "3760": "ಿಸಲಾಗಿದೆ\n\n",
    "3761": "ಂಜಾಬ್",
    "3762": "ಇಸ್ರಾಯೇಲ",
    "3763": "ಕ್ತಾರ",
    "3764": " ಇರುತ್ತ",
    "3765": " ಬು",
    "3766": "ಸಂಚಾರ",
    "3767": "ಗೊಳಿಸಲು ",
    "3768": "ತಃ",
    "3769": " ಪತ್ತ",
    "3770": " ಪೈಕ",
    "3771": " ರೈತ",
    "3772": " ಯೂ",
    "3773": "ಣ್ಣು ",
    "3774": " ತಲೆ",
    "3775": " ಡಾ",
    "3776": "ಶಾಂತ್",
    "3777": " ಮತ್ತು ಪ್ರ",
    "3778": "ಲಾಗಿದೆ ಎಂದು ",
    "3779": "ಕುಮಾರ",
    "3780": "ಪ್ರಧಾನಮಂತ್ರಿ ",
    "3781": "ಸ್ತಿತ್ವ",
    "3782": "ಇರುತ್ತ",
    "3783": "ಸೃಷ್ಟ",
    "3784": "ಗಳೊಂದಿಗೆ ",
    "3785": "ತಿಳಿದುಕೊಳ್ಳ",
    "3786": " ಗಳು ",
    "3787": "ರಾಜಸ್ಥಾನ",
    "3788": "ಸುರಕ್ಷ",
    "3789": "ವಿಂದ್",
    "3790": "ಜಾಪ್ರ",
    "3791": "ಜಾಪ್ರಭು",
    "3792": "ೇರಿ",
    "3793": "ಕ್ಸ್‌",
    "3794": "ಉಗ್ರ",
    "3795": "ತೆಗೆದುಕೊಳ್ಳ",
    "3796": "ಪೊಲೀಸ್",
    "3797": "ಆ ಬಗ್ಗೆ ",
    "3798": "ಆಡಳಿತ",
    "3799": " ಭಿನ್ನ",
    "3800": " ಮಾಡುವುದು ",
    "3801": " ಪ್ರಯೋಜನ",
    "3802": "ದತ್ತ",
    "3803": "ಮೇಲ್",
    "3804": " ಕೀರ್ತನೆ ",
    "3805": "ಬಹುಮಾನ",
    "3806": " ಕೆಲಸವನ್ನು ",
    "3807": " ರಿಂದ",
    "3808": "ಚಯ",
    "3809": "ವಸ್ತ",
    "3810": "ೋಬ",
    "3811": "ಾಟಾ",
    "3812": "ೇಗೌಡ",
    "3813": " ನೀ",
    "3814": "ಐಪಿಎ",
    "3815": " ಮಳ",
    "3816": " ಕಂಪನಿಯು ",
    "3817": "ಣೆಯನ್ನು ",
    "3818": "ಪಸ್",
    "3819": " ಮಕ್ಕಳಿಗೆ ",
    "3820": "ಫೀ",
    "3821": "ರ್ಜರಿ ",
    "3822": "ಅಂತಹ",
    "3823": "ಣಗ",
    "3824": "ಹ್ಯಾ",
    "3825": " ಜೊತೆಗ",
    "3826": "ಆತ್ಮಹತ್ಯ",
    "3827": "ನಾಶ",
    "3828": "ತಿ ಮತ್ತು ",
    "3829": "ಪ್ರಧಾನಿ ",
    "3830": "ರುಳ್ಳ",
    "3831": "ಿದೆಯ",
    "3832": "ಅಂಥ",
    "3833": "ನ್ಯವಾದ",
    "3834": " ಕಟ್ಟಡ",
    "3835": " ರು.\n\n",
    "3836": "ರಾಮ್",
    "3837": " G",
    "3838": "ದಲ್ಲಿ, ",
    "3839": "ವಾಬ್ದಾರ",
    "3840": " ನನಗೆ ",
    "3841": "ೆದುಕೊ",
    "3842": "ಿಯವರ",
    "3843": " ಹುಡುಗ",
    "3844": "ತ್ರಾ",
    "3845": " ಸ್ವೀ",
    "3846": "ಆದಾಗ್ಯೂ, ",
    "3847": " ಬಡ",
    "3848": "ಿಲ್ಲ.\n\nಈ",
    "3849": "ಇದೇ ವೇಳೆ ",
    "3850": "16",
    "3851": "ೋತ್",
    "3852": " ಫಿ",
    "3853": "ರಕ್ತ",
    "3854": "ಾಲಿವುಡ್‌",
    "3855": "ಿರುವುದರಿಂದ",
    "3856": "ಒತ್ತಾಯ",
    "3857": "ಾಜ್",
    "3858": " ಅಂಕ",
    "3859": "ೆತ",
    "3860": "ಸಹಕಾರ",
    "3861": "ಿದೆ.\"\n\n",
    "3862": "ಮೆಂಟ್",
    "3863": " ಬಂಗಾಳ",
    "3864": "ವರ್ತ",
    "3865": "ವಿಜಯ್",
    "3866": "ರಾಗಿದ್ದ",
    "3867": "ಪಾಸ",
    "3868": "ಲಿ,",
    "3869": "ಾಗ್",
    "3870": "ಮೀನು ",
    "3871": " ಯೋಜನೆಯ",
    "3872": "ವಿವಾದ",
    "3873": "ಹಿಂದೂ",
    "3874": "ಗಳಿಗೂ",
    "3875": "ಸ್ಥಿರ",
    "3876": "ಕು ",
    "3877": "99",
    "3878": "ಈ ಪ್ರಕರಣ",
    "3879": "ಕಣ",
    "3880": "ಅಪ್ಪ",
    "3881": "ಸಾರ್ವಜನಿಕರು ",
    "3882": "ವ್ಯಕ್ತ",
    "3883": " ಸಂಸ್ಥೆಯ",
    "3884": " ಕೊಟ್ಟ",
    "3885": " ಸಂಸ್ಕೃ",
    "3886": "ಇತ್ತೀಚೆಗೆ ",
    "3887": " ಸಾಹಿತ್ಯ",
    "3888": " ಬಣ್ಣ",
    "3889": "ಿ ಸಹ",
    "3890": "ಬೇಕು.\n\n",
    "3891": "ಕುಳಿತ",
    "3892": " ರಿ",
    "3893": "ಕ್ಕೆ ಸಂಬಂಧಿಸಿದಂತೆ ",
    "3894": "ಅತಿ ",
    "3895": " ಫೈ",
    "3896": " ನಾಗರಿಕ",
    "3897": " ಸುತ್ತ",
    "3898": "ಭಾಯ",
    "3899": "ಕೀಲ",
    "3900": "ಮಾಡಿದೆ.\n\n",
    "3901": "ಗಿತ",
    "3902": "ತಿರುಗ",
    "3903": "ವರಿ ",
    "3904": "ಿಸಲಾದ",
    "3905": "ಕೋರ",
    "3906": "ೀಯ",
    "3907": " ಗ್ರಾಹ",
    "3908": "ವಿಶ",
    "3909": "ದಾಣ",
    "3910": "ನೀಯ",
    "3911": " ಅವಧಿಯಲ್ಲಿ ",
    "3912": "ಹೃ",
    "3913": "ತಲಾ",
    "3914": "ಸಹೋದರ",
    "3915": "ಲ್ಲಂಘ",
    "3916": "ಸರಿಸ",
    "3917": "ಸೋಲ",
    "3918": " ಬೆಳವ",
    "3919": ", ಉ",
    "3920": "ಗಳಿವ",
    "3921": "ವಿಮಾನ",
    "3922": "ಿದೆ:\n\n",
    "3923": " ದಿನಗಳ",
    "3924": "ೈದರಾಬಾದ್",
    "3925": " ಕೂ",
    "3926": "ಇವೆ.\n\n",
    "3927": " ಹೃದಯ",
    "3928": " ತಂತ್ರಜ್ಞಾನ",
    "3929": "ಂತ್ರಿ",
    "3930": "ವೆಂಬ",
    "3931": " ಆಯ",
    "3932": "[…]\n\n",
    "3933": "ಕಡಿಮ",
    "3934": "ಬ್ಬರ",
    "3935": " ಪ್ರಶಸ್ತಿ ",
    "3936": "ೇಶನ್",
    "3937": "ಇಲ್ಲಿನ",
    "3938": "ವನ್ನೇ",
    "3939": "ಇಟ್ಟ",
    "3940": "ನ್ನುವ",
    "3941": "ೇಕ",
    "3942": " ಕೃತ್ಯ",
    "3943": " ದಿ",
    "3944": "ರಾಜೀನಾಮೆ ",
    "3945": "ಧ್ಯಾ",
    "3946": " ಮಧ್ಯೆ ",
    "3947": "ವೊಂದು ",
    "3948": "ಾಗಿ,",
    "3949": "ಿಸುತ್ತಾರೆ.\n\n",
    "3950": "ಂಡ್‌",
    "3951": "ಗೆಲುವ",
    "3952": "ನಾದರೂ",
    "3953": " ಪೂರ",
    "3954": "ಕ್ಕೆ ಬರ",
    "3955": " ಪರಿಸರ",
    "3956": "ಟ್‌ನಲ್ಲಿ ",
    "3957": "ಪ್ಲಿಕ",
    "3958": " ಜಗ",
    "3959": "ಾರಾಯಣ",
    "3960": " ಪ್ರತಿನಿಧ",
    "3961": " ಠಾಣ",
    "3962": " ಅಂತರ",
    "3963": " ಬಗ್ಗ",
    "3964": "ಿಸಬೇಕೆಂದು ",
    "3965": "ಿಕೊಂಡು ",
    "3966": "ದೃಢ",
    "3967": "ಜಗ",
    "3968": ", ಸಿ",
    "3969": "ಕೆಟ್ಟ",
    "3970": "ಚಕ್ರ",
    "3971": "ುಕತೆ ",
    "3972": "ಯಶಸ್ವ",
    "3973": " ಸ್ಮಾರ್ಟ್‌",
    "3974": "ಂಟರ್",
    "3975": "ಸಂತೋಷ",
    "3976": " ಅಮೆರಿಕ",
    "3977": " ಕಾನೂನು ",
    "3978": " ಕಲ್ಪ",
    "3979": " ಸರಳ",
    "3980": "ಪ್ಟ",
    "3981": "ಫಾರ್",
    "3982": "ಿದೆ ಎಂದ",
    "3983": "ತಂತ್ರ್ಯ",
    "3984": "ಂಟಿ ",
    "3985": ". ಡಿ.",
    "3986": "2020",
    "3987": " ಲೀಟರ್",
    "3988": " –",
    "3989": "ಮ್ರಾ",
    "3990": "ೇಜ್",
    "3991": " ಲಕ್ಷ ರೂ.\n\n",
    "3992": "ನ್‌ನ",
    "3993": "ಆಕೆ ",
    "3994": "ೆ ಎನ್ನಲಾಗಿದೆ.\n\n",
    "3995": "ದಿಂದಲೂ",
    "3996": "ನಿರ್ದೇಶಕ",
    "3997": "ಿ ಸಚಿವ",
    "3998": "ೋಹನ್",
    "3999": " ಹಳ್ಳ",
    "4000": "ಿಸಬೇಕು",
    "4001": "ಆಸ್ಪತ್ರ",
    "4002": "ು!\n\n",
    "4003": "ಬದಲಾಗ",
    "4004": "ದಾಖ",
    "4005": "ೀದ",
    "4006": "ಯೆ",
    "4007": "ಸಿಯ",
    "4008": "ಜನಪ್ರಿಯ",
    "4009": " ಚಿಕಿತ್ಸ",
    "4010": "ಪಡಿಸಿದ್ದಾರೆ.\n\n",
    "4011": "ಪಿಸ",
    "4012": "ಷೇಧ",
    "4013": "), ",
    "4014": "ಕಥ",
    "4015": "ಾಗಿಲು ",
    "4016": "ಚೆನ್ನೈ",
    "4017": "ಬಹುತ",
    "4018": "ುಬಂದಿದೆ.\n\n",
    "4019": "ಿಗೆ ಬಂದ",
    "4020": "ದ ಸದಸ್ಯ",
    "4021": "ಾಗಿ, ",
    "4022": "ನೆಗಳು ",
    "4023": "ರಾಹುಲ್ ಗಾಂಧಿ ",
    "4024": "್ಯಾಲ",
    "4025": "ಎಐ",
    "4026": "ಕ್ಕೂಟ",
    "4027": "ಭ್ರಮ",
    "4028": "ದಲ್ಲಿದ್ದಾರೆ.\n\n",
    "4029": "ೆ, ಆದರೆ ",
    "4030": "ಶಾಶ್ವ",
    "4031": "ಶಾಶ್ವತ",
    "4032": "ಾಪಕ",
    "4033": "ಪ್ರಕ್ರಿಯ",
    "4034": " ವಿನ",
    "4035": "ಹೊಂದ",
    "4036": "ಪ್ರವಾಹ",
    "4037": "ವಾಗಿದ್ದು, ",
    "4038": " 125",
    "4039": "ಸಮಿತ",
    "4040": "ಯೂ",
    "4041": "ಜೋಡ",
    "4042": " ಸುದ್ದ",
    "4043": " ಚಲನಚಿತ್ರ",
    "4044": " ಹಾಗೆಯೇ",
    "4045": " ಸವಾರ",
    "4046": "ಪ್ಯಾ",
    "4047": "ಉದ್ದೇಶ",
    "4048": "ೆಗಳಿವೆ.\n\n",
    "4049": "ನಿಮಾಗ",
    "4050": " /",
    "4051": " ಸದ್ಯ",
    "4052": "ಿ ಅಧಿಕಾರ",
    "4053": "ಕ್ಕೆ ಹೋಗ",
    "4054": "ನಿಷ್ಠ",
    "4055": "ದ ಕಾರಣ",
    "4056": " ಗಂಡ",
    "4057": "ಿಕೆಯಾಗ",
    "4058": " ಬಳಲ",
    "4059": "ಿಗಳು.\n\n",
    "4060": "ಅಗ",
    "4061": " - 2",
    "4062": "ಪಡಿಸಿದರು.\n\n",
    "4063": " ಮನಸ್",
    "4064": "ಂಕು",
    "4065": " ಪುಟ",
    "4066": "ಪರಸ್ಪರ",
    "4067": "ಿದ್ದೇ",
    "4068": "ಬೆಳೆದ",
    "4069": "ವುಳ್ಳ",
    "4070": "ಿತವಾಗಿ ",
    "4071": " ಕಾಲೇಜ",
    "4072": " ಇನ್",
    "4073": " ಛ",
    "4074": "ಭಯೋತ್ಪಾದ",
    "4075": "ತಿಹಾಸಿಕ",
    "4076": "ಭಾಷಣ",
    "4077": " ಪೋಷ",
    "4078": "ದಿಷ್ಟ",
    "4079": " ಕಾಯ್ದ",
    "4080": " ಭಯ",
    "4081": "ಿಗಳು ಮತ್ತು ",
    "4082": " ಅನುಕೂಲ",
    "4083": "ಳವಡ",
    "4084": "ಿದು ",
    "4085": "ಕೋರ್ಟ್",
    "4086": "ದೇ ಆದ",
    "4087": "ಕಾರ್ಯಕ್ರಮದಲ್ಲಿ ",
    "4088": "ಕೇಂದ್ರ ಸರ್ಕಾರ",
    "4089": " ಸಿಬ್ಬಂದಿ ",
    "4090": " ಗಂಭೀರ",
    "4091": "ಲೆಕ್ಟ್ರಿಕ್",
    "4092": "ಫಾರ",
    "4093": "ಬರುವುದ",
    "4094": " ರೈಲ್",
    "4095": " ಗುಂಡ",
    "4096": "ಿಸಲಿಲ್ಲ.\n\n",
    "4097": " ಬಯ",
    "4098": "ಲು ಬಯಸ",
    "4099": "ಿಯೊ",
    "4100": " ಪ್ರಾರಂಭ",
    "4101": " ಬದಲಾಗ",
    "4102": "ಮೂರನೇ",
    "4103": " ಇಂದ",
    "4104": "ಪ್ರವಾಸ",
    "4105": " ಧಾರ",
    "4106": "ಾಕಾರ",
    "4107": " ಮಾಡಲಾಗಿದೆ.\n\n",
    "4108": " ಹೆಚ್ಚುವರ",
    "4109": "ಮಿಷ",
    "4110": "ಿನಿಯ",
    "4111": "ೊಂದರ",
    "4112": "ಲುವ",
    "4113": "ಧಿ ",
    "4114": " ಕೊ",
    "4115": "ಿರುವುದನ್ನು ",
    "4116": "ವಾದದ್ದ",
    "4117": " ಜನಪ್ರಿಯ",
    "4118": "in",
    "4119": "ವದ",
    "4120": " ಸಂದರ್ಭ",
    "4121": " ಎಂದೂ",
    "4122": "ಿರುವಾಗ",
    "4123": " ತೆಗೆದುಕೊಳ್ಳ",
    "4124": "ಅಶ್",
    "4125": "ಫ್ಘಾನ",
    "4126": "ನೇರ",
    "4127": "ಿಸುತ್ತೇನ",
    "4128": "ಟು ",
    "4129": "ಕೊರ",
    "4130": "ರೈಲ",
    "4131": ", ಆದರೆ ",
    "4132": "ಚೇರ",
    "4133": "ಇದುವರೆಗೆ ",
    "4134": " ತೆಗೆದುಕೊಂಡ",
    "4135": "ಮರಾ",
    "4136": " ಹೇಗ",
    "4137": "ಗೂಗ",
    "4138": "ಲ್​",
    "4139": "ೇಡ್",
    "4140": "ುಪಡ",
    "4141": "ಸುದ್ದ",
    "4142": " ಪ್ರಶ್ನೆ ",
    "4143": "ಊಟ",
    "4144": "ೆಗಳು\n\n",
    "4145": " ಉತ್ಪನ್ನ",
    "4146": "ುವುದೇ",
    "4147": "ೊಂದು ",
    "4148": " ಅವಶ್ಯಕ",
    "4149": "ಮಕ್ಕಳನ್ನು ",
    "4150": "ಭ್",
    "4151": "ಯಾವತ್ತ",
    "4152": "ಚೀನಾ",
    "4153": "ಬಿಡುಗಡೆಯಾಗ",
    "4154": "‍‍",
    "4155": "ಲಿದ್ದು, ",
    "4156": "ಪೆಟ್ರೋ",
    "4157": "ಾನ್ಯ",
    "4158": " ಅಧ್ಯಯನ",
    "4159": "ಒಟ್ಟ",
    "4160": "ೆಂ",
    "4161": "ಗಾ",
    "4162": "ೆರಡು ",
    "4163": "ಹರಿದ",
    "4164": " ಇದ್ದಾರೆ.\n\n",
    "4165": " ಸಮಾ",
    "4166": "ಸ್ಟರ್",
    "4167": "ವೆಂದರೆ ",
    "4168": "ತೆ ವಹ",
    "4169": " ದೆಹ",
    "4170": "ಅಷ್ಟೇ",
    "4171": "ಹಾಡ",
    "4172": " ಗ್ರಾಂ",
    "4173": "ುಂಟ",
    "4174": "ುಗಳು,",
    "4175": "ಮನೆಯ",
    "4176": "ಪಂದ್ಯ",
    "4177": "ತಾಳ್",
    "4178": "ಉಪಯೋಗ",
    "4179": "ಂತೆ.\n\n",
    "4180": "ವೈದ್ಯಕೀಯ",
    "4181": "ತಗ್ಗ",
    "4182": "ಇದ್ದಾರೆ.\n\n",
    "4183": "ಸ್ಥಿತ",
    "4184": " ಭರವಸ",
    "4185": "ಹಿಡಿಯ",
    "4186": " ವಿವಾದ",
    "4187": "ಹೈ",
    "4188": " ಸಿಕ್ಕ",
    "4189": "ಿರಿ ",
    "4190": "ನಾವರಣ",
    "4191": "ಬೆಂಗಳೂರು ",
    "4192": "ಾಲೂಕ",
    "4193": " ಸಂಚಾರ",
    "4194": "ತು.\n\n",
    "4195": " - 1",
    "4196": " ಓದ",
    "4197": "ು ನೀಡ",
    "4198": "ವಾಗಿದೆ ಎಂದು ",
    "4199": "ವೈ",
    "4200": "ವರ್ತನ",
    "4201": "ರೋಪಿ",
    "4202": "ರೋಪಿಗಳನ್ನು ",
    "4203": "ಎಂದರು.\n\n",
    "4204": "ಬೆಳೆಸ",
    "4205": "ಳಿ",
    "4206": "ಿದ್ದಾರೆ.",
    "4207": " !\n\n",
    "4208": ", ಮತ್ತು ",
    "4209": "ಮುನ್ನಡ",
    "4210": "Na",
    "4211": " ವಿರಾಟ್ ಕೊಹ್ಲಿ ",
    "4212": "ುಲ್",
    "4213": "ಕಾದ",
    "4214": " ದಿನಾಂಕ",
    "4215": " ಬೆಳವಣಿಗ",
    "4216": "ದ ನ",
    "4217": " ಜೀ",
    "4218": "ಿದಿದೆ.\n\n",
    "4219": "ದೀಪಿಕಾ",
    "4220": " ದೇವಸ್ಥಾನ",
    "4221": " ಘಟಕ",
    "4222": "ನಾಮ",
    "4223": "ಟ್ಸ್",
    "4224": " ನೀರಿನ",
    "4225": "ೆ ಸಲ್ಲ",
    "4226": " ಮಹಿಳೆಯ",
    "4227": "ಸಾಮಾಜಿಕ ಜಾಲತಾಣ",
    "4228": "ತಮಾನ",
    "4229": " ಕಠಿಣ",
    "4230": "ೆಡ",
    "4231": "ಿಸಿಕೊಂಡು ",
    "4232": " ಲಿ",
    "4233": "ಿಸುತ್ತಿದೆ.\n\n",
    "4234": "ಧಾವ",
    "4235": "ಮಾಡುವುದು ",
    "4236": "ಸಂದರ್ಶ",
    "4237": " ಆಧಾರ",
    "4238": "ಪ್ರೇ",
    "4239": "ಪಾನ",
    "4240": " ಪ್ಯಾ",
    "4241": " ಸಭೆಯ",
    "4242": " ಹರಿ",
    "4243": "Ho",
    "4244": "Home",
    "4245": "ಮೂಡ",
    "4246": " ಅಂಗ",
    "4247": "ಮಾತ್ರವಲ್ಲ",
    "4248": "ಭುತ",
    "4249": " ಡೀಸೆಲ್",
    "4250": "ಈ ಸಿನಿಮಾ",
    "4251": "ಅವರು ಹೇಳಿದರು.\n\n",
    "4252": "ಉದ್",
    "4253": " ಸ್ಥಾನಕ್ಕೆ ",
    "4254": "ಾಲಿ ",
    "4255": "ುತಿ ಸುಜುಕ",
    "4256": "ಪ್ರದೇಶದ",
    "4257": "ಮನ್",
    "4258": "ಶತಕ",
    "4259": " ದ್ವಿ",
    "4260": " ತಂಡಗಳು ",
    "4261": "ಕಂಪ",
    "4262": "ಕಾಣಿಸಿಕೊಂಡ",
    "4263": "ಅಂತಿಮ",
    "4264": "ಸಮ್ಮ",
    "4265": " ಸಮಸ್ಯೆ ",
    "4266": "ಅನ್ವಯ",
    "4267": "ಪರಿಣ",
    "4268": "ಬೇಕು ಎಂದು ",
    "4269": " ಎಂದಿದ್ದಾರೆ.\n\n",
    "4270": "ವೆ?\n\n",
    "4271": "ನೊ",
    "4272": "ಬಳಕ",
    "4273": "ಹಿತ್ ಶರ್ಮಾ",
    "4274": "ಆತನು ",
    "4275": " ಪಾಂಡ",
    "4276": " ನಿರಾ",
    "4277": " ತುಂಬಾ",
    "4278": " ಒಂದೇ",
    "4279": "ಪ್ರತಿಭಟನಾಕಾರ",
    "4280": "ೆಕ್",
    "4281": "ಗುಜರಾ",
    "4282": " ಗುಂಪ",
    "4283": " ಸಂತ",
    "4284": "ಂಕ್‌",
    "4285": " ದೇವಾಲಯ",
    "4286": "ತಾಂತ್ರ",
    "4287": "ಾಡಿನ",
    "4288": "ಪ್ರಾಣ",
    "4289": "ಿತರರು ",
    "4290": "ಖರ್",
    "4291": " ಪರವಾಗಿ ",
    "4292": " ಸಾಂಸ್ಕೃತಿಕ",
    "4293": "ಕ್ಕಿಂತಲೂ",
    "4294": "ಮದುವ",
    "4295": "ೈರ್ಯ",
    "4296": " ಮುಖ್ಯಮಂತ್ರಿ ",
    "4297": "ಈ ಬಾರಿ ",
    "4298": " ಮರಣ",
    "4299": "ಪಾಲ್ಗೊಂಡಿದ್ದರು.\n\n",
    "4300": "ರಂಜ",
    "4301": " ಜತೆ ",
    "4302": " ಫೋ",
    "4303": "ಗೊಂಡು ",
    "4304": "ಡಿಂಗ್",
    "4305": " ಮಂತ್ರ",
    "4306": " ಸೌಕರ್ಯ",
    "4307": "ನೀರಿನ",
    "4308": " ಫೋನ್",
    "4309": " ತಂದೆ ",
    "4310": "ೇಗ",
    "4311": "ಉದಾಹರಣೆಗೆ, ",
    "4312": "ವಿರುತ್ತದೆ.\n\n",
    "4313": "ು ಅಥವಾ",
    "4314": "ಾವೀದ",
    "4315": "ೆ ಮಾಡಿದ",
    "4316": " ತಿಳಿಯ",
    "4317": " ಒಟ್ಟ",
    "4318": " ಪಟ",
    "4319": "ೀನ್",
    "4320": "ಂಕರ",
    "4321": "ುತ್ತದೆ ಮತ್ತು ",
    "4322": "ಿಸುವುದಿಲ್ಲ.\n\n",
    "4323": "ಮುಚ್ಚ",
    "4324": "ಿ ನಾಯಕ",
    "4325": " ಕಾರ್ಯಕರ್ತರು ",
    "4326": " ಸಂಪರ್ಕ",
    "4327": "ದಲ್ಲಿದೆ.\n\n",
    "4328": "ವರೂಪ",
    "4329": "ಅಡ",
    "4330": " ಸೂಪರ್",
    "4331": "ಸಮಾನ",
    "4332": " ಸಾಗ",
    "4333": "ದಯದ",
    "4334": "ಮಾಡಿ ",
    "4335": "ಪ್ರೀತ",
    "4336": "ದೇಶಾದ್ಯಂತ",
    "4337": "ತಾನು ",
    "4338": "ಸ್ತಿ ",
    "4339": "ೆಯಲ್ಲಿರುವ",
    "4340": "ಈ ಮೂಲಕ",
    "4341": " ಬಚ್ಚ",
    "4342": "ಖ್",
    "4343": "ಮಿಳು ",
    "4344": "ಿಲ್ಲ ಎಂದರು.\n\n",
    "4345": "ೊಂದರಲ್ಲಿ ",
    "4346": "ಿಗಳು,",
    "4347": "ಮನೆಯಲ್ಲಿ ",
    "4348": "ೂನ್",
    "4349": " ಕಾರ್ಯಕ್ರಮದಲ್ಲಿ ",
    "4350": " ಯೋಚ",
    "4351": "ುರು",
    "4352": "ಇವುಗಳಲ್ಲಿ ",
    "4353": "ಮತಿ ",
    "4354": " ಹುದ್ದ",
    "4355": "ಸ್ವಾಮ",
    "4356": "ತಿಳಿಸಿದೆ.\n\n",
    "4357": "ಿಲ್ಲದ",
    "4358": "ಾಪುರ",
    "4359": "ಔಟ್",
    "4360": " ನರೇಂದ್ರ ಮೋದ",
    "4361": "ಸ್ಮಾರ",
    "4362": "ಪಕ್ಷೀಯ",
    "4363": " ಬೆಂಬಲ",
    "4364": " ಒದಗ",
    "4365": "ಜಾಪ್ರಭುತ್ವ",
    "4366": "ಿದ್",
    "4367": "ಸಭಾ ಕ್ಷೇತ್ರ",
    "4368": " 50",
    "4369": " ರು",
    "4370": "ಲ್ಯದ",
    "4371": "ಇರುತ್ತದೆ.\n\n",
    "4372": "ಂಗೀತ",
    "4373": "ಿ ವಿರುದ್ಧ",
    "4374": ". (",
    "4375": "ಸಮರ್ಥ",
    "4376": "ಗುರ",
    "4377": "ಪ್ರಿಯಾಂಕಾ",
    "4378": "ಧರ್ಮ",
    "4379": "ಈ ನಿಟ್ಟಿನಲ್ಲಿ ",
    "4380": "ಬೇಕಿದೆ.\n\n",
    "4381": " ಆದೇಶ",
    "4382": "ತಿದಿನ",
    "4383": ".\n\nಆ",
    "4384": " ಸುಪ್ರೀ",
    "4385": "ಪಶ್ಚಿಮ",
    "4386": " ಉಳಿದ",
    "4387": " ವಯ",
    "4388": "ವ್ಯಾಪಾರ",
    "4389": "ಚುನಾವಣಾ ಆ",
    "4390": "ಚುನಾವಣಾ ಆಯೋಗ",
    "4391": "ಿಸಿದಾಗ",
    "4392": "ೆಯಾಗುತ್ತದೆ.\n\n",
    "4393": "ದಲ್ಲಿಯೇ",
    "4394": "ಬಹುದು\n\n",
    "4395": "ತೆ,",
    "4396": "ವಾಗಬಹುದು.\n\n",
    "4397": " ಹಳೆಯ",
    "4398": " ಟ್ವಿಟರ್",
    "4399": " ಮತ್ತು ಅ",
    "4400": " ಅಲಿ ",
    "4401": "ವಾನ",
    "4402": " ಸಂಪನ್",
    "4403": " ಮೇಲಿನ",
    "4404": " ಎಫ್",
    "4405": " ಸಿಂಗ್‌",
    "4406": "ಸರ್ಕಾರದ",
    "4407": "ಿದಾಗ",
    "4408": "ನ್ ಗೆ ",
    "4409": "ಿಯಲ್",
    "4410": "ನಮ್ಮನ್ನು ",
    "4411": "e ",
    "4412": "ತೆಯಲ್ಲ",
    "4413": " :⁠",
    "4414": "ಈಗಲೂ",
    "4415": "ು ಹೇಗೆ ",
    "4416": "ೆದುಹಾಕ",
    "4417": "ಗೆಲ್ಲ",
    "4418": "ಅವರಿಗ",
    "4419": "ೇಕೆ ",
    "4420": "ೆದುಕೊಳ್ಳ",
    "4421": "ನಿನಗೆ ",
    "4422": "ಸ್ಕಾರ",
    "4423": "ಿಗೆ ಅ",
    "4424": "ಫ್ಘಾನಿಸ್ತಾನ",
    "4425": "ಅಲ್ಲಿನ",
    "4426": "ಪ್ರಯೋಜನ",
    "4427": "ಆಸ್ಪತ್ರೆಗೆ ದಾಖಲ",
    "4428": "ಲಿ ಎಂದು ",
    "4429": "ಾನಿ ",
    "4430": " ಕ್ರಮ ಕೈಗೊಳ್ಳ",
    "4431": "ಇಳಿದ",
    "4432": "ನೂತನ",
    "4433": "ಶಿಷ್ಟ್ಯ",
    "4434": "ತ್ವವನ್ನು ",
    "4435": " ಮೃ",
    "4436": "ರಲ್ಲ",
    "4437": " ದಕ್ಷಿಣ",
    "4438": " ಕಳೆದ",
    "4439": " ಮೃತಪಟ್ಟ",
    "4440": "ಪಿಎಂ",
    "4441": "ಿಲ್ಲ\n\n",
    "4442": " ಹೋರಾಟ",
    "4443": " ಕುಮಾರ್ ಕ",
    "4444": "ಬಡ",
    "4445": "ಸದ್ಯಕ್ಕೆ ",
    "4446": ".\n\nಇದ",
    "4447": "ಬಿಜೆಪಿಯ",
    "4448": " ಒಳ",
    "4449": "300",
    "4450": "ೇಲ್ಯ",
    "4451": " ಸಂಶೋಧ",
    "4452": "ೈಸೂರು ",
    "4453": " ಕ್ಯಾಮೆರಾ",
    "4454": " ಇಷ್ಟ",
    "4455": "ವಿದೇಶಾಂಗ",
    "4456": "ಿಗಳಿಂದ",
    "4457": "ಘಟನೆಯ",
    "4458": " ಯಾ",
    "4459": "77",
    "4460": "ಮಾರುಕಟ್ಟ",
    "4461": " ಮನೆ ",
    "4462": "ದೊರ",
    "4463": " ರಾಜ್",
    "4464": " ವರೆಗೆ ",
    "4465": " ಏನೂ",
    "4466": " ಕೆಳಗಿನ",
    "4467": "ಥಮ",
    "4468": "ಅಧಿಕೃತ",
    "4469": "ಕೃಷ",
    "4470": "ಬಾರದು ",
    "4471": "ಯಾವತ್ತೂ",
    "4472": " ಅವರೊಂದಿಗೆ ",
    "4473": " ಇರಲಿಲ್ಲ.\n\n",
    "4474": "ಿ ಮೇಲ",
    "4475": "ಕ್ಕಿ",
    "4476": ",\n\n",
    "4477": "ಿಕೊಟ್ಟ",
    "4478": "ಅವಕಾಶ ನೀಡ",
    "4479": " ಕಾರ್ಯಾಚರಣ",
    "4480": "ನಿಧಾನ",
    "4481": "ಇನ್",
    "4482": "” ಎಂಬ",
    "4483": "ಗುಂಡ",
    "4484": "ುವುದು: “",
    "4485": "ಸುತ್ತ",
    "4486": " ಸೌಲಭ್ಯ",
    "4487": " ವಿತ",
    "4488": "ಪುರುಷ",
    "4489": "ನಾಯ",
    "4490": "ಲು?\n\n",
    "4491": "ಬಹುದಾಗಿದೆ.\n\n",
    "4492": "ಇರಿಸ",
    "4493": "ಪ್ರಕರಣಕ್ಕೆ ಸಂಬಂಧಿಸಿದಂತೆ ",
    "4494": " ಆಕ್ರೋಶ",
    "4495": "ಜಲ",
    "4496": "ುವುದು\n\n",
    "4497": " ತೆರ",
    "4498": " ತಿಳಿಸಿದರು.\n\n",
    "4499": "ದುಃಖ",
    "4500": "ಿಸುತ್ತಿರುವ",
    "4501": "ಿಸುತ್ತೇವೆ.\n\n",
    "4502": "ಮುಂದುವರೆಸ",
    "4503": "ಡಿರಿ",
    "4504": "ಕಡ್ಡಾಯ",
    "4505": "ುದರಿಂದ",
    "4506": " ಹೋಗ",
    "4507": "ಪಕ್ಷದ",
    "4508": "ನವದೆಹಲಿ:",
    "4509": "ಗೃಹ",
    "4510": " ವ್ಯವಹಾರಗಳ",
    "4511": "ಸಭೆಯ",
    "4512": " ತಂದೆಯ",
    "4513": "ಲೊ",
    "4514": "ಇಬ್ಬರೂ",
    "4515": "ಗುರುತಿಸಲಾಗಿದೆ.\n\n",
    "4516": "ೇಷ",
    "4517": " ನಿಲ್",
    "4518": " ನಿಲ್ದಾಣ",
    "4519": "ನರೇಂದ್ರ ಮೋದ",
    "4520": " ನಡೆಯಿತು.\n\n",
    "4521": "ಲೋಚ",
    "4522": " ರಾಜಕಾರಣ",
    "4523": " ಕನ",
    "4524": "ಪೋಷ",
    "4525": "ರುವುದ",
    "4526": "ಭರ್ಜರಿ ",
    "4527": "ಸುಮ್ಮ",
    "4528": "ೊಂಡ",
    "4529": " ಜಿ.",
    "4530": "ಮುಟ್ಟ",
    "4531": "ಬಾಗ",
    "4532": " ಮುನ್ನ",
    "4533": " ವಿಶ್ವಾಸ",
    "4534": "ತೀಶ್",
    "4535": " ಮೋರ್",
    "4536": " ವ್ಯಕ್ತಪಡಿಸಿದ್ದಾರೆ.\n\n",
    "4537": "ಕೃತಜ್ಞ",
    "4538": "ಇದು ಅ",
    "4539": "ಭಾರೀ",
    "4540": "ನ್ಸರ್",
    "4541": "ೆಟ್",
    "4542": "ಸಂಸ",
    "4543": " ರನ್‌",
    "4544": "ಹಣವನ್ನು ",
    "4545": "ಲಿಕ್ಕಾಗಿ ",
    "4546": "ಸತ್ತ",
    "4547": "ುಷ",
    "4548": "ಆಯ್ಕೆ ಮಾಡ",
    "4549": "ಿಯಾನ",
    "4550": "ನ್ಸ್‌",
    "4551": " ವಿದ",
    "4552": "ರಣೆ ",
    "4553": " ಬಳಸ",
    "4554": "ತಿ ಮಾಡ",
    "4555": "ನಮ್ಮಲ್ಲಿ ",
    "4556": "ಿದೆ ಎಂಬುದನ್ನು ",
    "4557": " ನೀಡುವ",
    "4558": " ಸಾಧ್ಯತೆ ",
    "4559": "ವಾಡ",
    "4560": "ತೆಗಳು ",
    "4561": "ಲೆಯಲ್ಲಿ ",
    "4562": " ಇದೇ",
    "4563": " ಜಮ್ಮ",
    "4564": "ತೆರೆಯ",
    "4565": "ಿಕೋನ",
    "4566": "ಪಿ ಮತ್ತು ",
    "4567": " ಟಾರ್ಕ್",
    "4568": "ಮುಗ",
    "4569": " ಕಾಮ",
    "4570": "ಂಡವಾಳ ಹೂಡ",
    "4571": "ಗಳು ತಿಳಿಸ",
    "4572": "ಘಾಟ",
    "4573": " ಸಭೆಯಲ್ಲಿ ",
    "4574": " ಚುನಾವಣೆ ",
    "4575": "ಿಸಬೇಕು ಎಂದು ",
    "4576": "ಿಕೊಂಡಿರುವ",
    "4577": "ಧ್ಯಾತ್ಮ",
    "4578": " ಡೇ",
    "4579": " ರೈಲು ",
    "4580": "ಯಾವುದೇ",
    "4581": "ನಾಗಿ ",
    "4582": "ಯುದ್ಧ",
    "4583": " ಬೇಕು.\n\n",
    "4584": "ವಾಗುವ",
    "4585": "ಶೋಕ್",
    "4586": " ತಲುಪ",
    "4587": "ಿದ್ದರೆ ",
    "4588": "್ಯಾಡ್",
    "4589": "ಲೀ",
    "4590": "ಕ್ತರ",
    "4591": " ಯೋಜ",
    "4592": "ಕಳಿಸ",
    "4593": "ಟ್‌ಗೆ ",
    "4594": "ಆರಿಸ",
    "4595": "ಮಂಜ",
    "4596": " ಮೈತ್ರ",
    "4597": " ಶಿಕ್ಷ",
    "4598": "ರ್ತ",
    "4599": " ಸ್ವೀಕರ",
    "4600": "ು ಹೇಳ",
    "4601": " ಮೇಲ್",
    "4602": "ನಿಜವಾಗಿಯೂ",
    "4603": "ಮಾನ್ ಖಾನ್",
    "4604": "ವಿತ್ತು.\n\n",
    "4605": "ಕರೆದ",
    "4606": " ಅತಿ ",
    "4607": " ಏನು ",
    "4608": "ಿಕೊಡ",
    "4609": "ುಕೋ",
    "4610": "ವಿಶೇಷವಾಗಿ ",
    "4611": "ಒಪ್ಪಂದ",
    "4612": "ರಕ್ಷಣ",
    "4613": " ರಾಜ್ಯದಲ್ಲಿ ",
    "4614": "ನ್ನಪ್ಪ",
    "4615": ". ” —",
    "4616": " ಪೇ",
    "4617": "ಇತಿಹಾಸ",
    "4618": "ಕ್ಕರೆ ",
    "4619": "ುತ್ತಿದೆ ಎಂದು ",
    "4620": "ಶೇ.\n\n",
    "4621": "ಿಕೊಳ್ಳಿ.\n\n",
    "4622": "  ",
    "4623": "ಿದ್ದರೂ",
    "4624": " ಪಾದ",
    "4625": "ರು ಅ",
    "4626": "ಪ್ರತಿನಿಧ",
    "4627": " ಪ್ರದರ್ಶನ",
    "4628": "ೈ",
    "4629": "' ಚಿತ್ರ",
    "4630": " ಗೌರವ",
    "4631": "ಸರಿಯಾಗಿ ",
    "4632": " ಮಾಡಿ.\n\n",
    "4633": "ವಣಿಗ",
    "4634": "ಿನಲ್ಲ",
    "4635": " ಇಡೀ",
    "4636": " ರಕ್ಷಣಾ",
    "4637": " ತಿರು",
    "4638": "ೇಕ್ಷ",
    "4639": "%s",
    "4640": " ಮುಖಂಡರು ",
    "4641": "ರಾಡ",
    "4642": " ನೇಮಕ",
    "4643": " ವರ್ಷದ",
    "4644": " ಕಳ್ಳ",
    "4645": "ಿಸುವ ಮೂಲಕ",
    "4646": " ವೈರಸ್",
    "4647": " ಅರಿ",
    "4648": " ಟೈ",
    "4649": " ಬಾರಿಗೆ ",
    "4650": "ತಿಯಿಂದ",
    "4651": ", ಮಹಿ",
    "4652": "ಕಠಿಣ",
    "4653": "ವಳ",
    "4654": " ಪೆಟ್ರೋ",
    "4655": "ಲಾಗಿದೆ\n\n",
    "4656": " ಅಧಿಕೃತ",
    "4657": "ಾಕಿ ",
    "4658": "ಲ್ ಮತ್ತು ",
    "4659": " ಸ್ನೇಹಿತ",
    "4660": " ಆಯ್ಕೆ ಮಾಡ",
    "4661": "ಪೈ",
    "4662": " ಪ್ರವೇಶ",
    "4663": " ಪೂರ್ವ",
    "4664": "ಿರುವುದಿಲ್ಲ.\n\n",
    "4665": "ವಾಗಿವೆ.\n\n",
    "4666": " ನೆರವು ",
    "4667": "ಫೋಟ",
    "4668": "ಕುಲ",
    "4669": "ಭ್ರಷ್ಟ",
    "4670": "ತ್ಯಾಸ",
    "4671": "ಾಗಲೇ",
    "4672": "ನು\n\n",
    "4673": " ಅರಸ",
    "4674": "ಯಾಕೆ",
    "4675": " ಷ",
    "4676": "ಸಂಘ",
    "4677": "ವಾಲು ",
    "4678": "ರು:",
    "4679": "ಭೂತ",
    "4680": "ಈ ವೇಳೆ ",
    "4681": "ಜೆಟ್",
    "4682": " ನು",
    "4683": " ತೂಕ",
    "4684": " ಬಳಕೆದಾರ",
    "4685": "ನಿಜ.\n\n",
    "4686": " ಪ್ರಶಸ್ತ",
    "4687": " ಪ್ರಸ್ತ",
    "4688": " ದೂ",
    "4689": "ಹೋಗಿ ",
    "4690": "ಬೂ",
    "4691": " ಕಣ",
    "4692": "ಪ್ರಪಂಚ",
    "4693": "ನನಗ",
    "4694": "ಮೌಲ್ಯ",
    "4695": " ಆಜ್ಞ",
    "4696": " ತಾಣ",
    "4697": "ವಾಗಿದೆ\n\n",
    "4698": "ಶಸ್ತ್ರ",
    "4699": "ಣೆಗೆ ",
    "4700": " ಶಬ್ದ",
    "4701": "ಕೊನ",
    "4702": "ರನ್ನಾಗಿ ",
    "4703": "ನಿಷೇಧ",
    "4704": "ದರಿಂದ",
    "4705": "ಕಳೆದುಕೊಂಡ",
    "4706": " ಅಭಿಮಾನಿ",
    "4707": "ಬೆಳಕ",
    "4708": " ರಾಜಧಾನ",
    "4709": "ಗ್ರಾಮೀಣ",
    "4710": "ಈ ಘಟ",
    "4711": "ಕಲಿತ",
    "4712": "ಯಾಳ",
    "4713": " ಡಿಸ",
    "4714": " ಖ್ಯಾತ",
    "4715": " ಹೊಟ್ಟ",
    "4716": " ಮತ್ತು ಉ",
    "4717": "ುತ್ತಿದ್ದಂತೆ ",
    "4718": "ನು ತನ್ನ",
    "4719": "ಈವರೆಗೆ ",
    "4720": "ವಿಎಸ್",
    "4721": " ನೂತನ",
    "4722": "ಿ ಅವ",
    "4723": " ಗೇರ್",
    "4724": " ಏನ",
    "4725": "ೆಹ್",
    "4726": " ಸ್ತ್ರ",
    "4727": " ವಕ್ತಾರ",
    "4728": "ಯಾರಿಗೂ",
    "4729": "ಂಡಿ ",
    "4730": "ದಕ್ಕೆ ",
    "4731": "ಗುರು",
    "4732": " ಖಾಸಗ",
    "4733": "ಣವನ್ನು ",
    "4734": " ಉಪ್ಪ",
    "4735": "ಹರಿಸ",
    "4736": "ವಿತ್ರ",
    "4737": " ಪ್ರಕರಣಗಳ",
    "4738": "ೆನು.\n\n",
    "4739": "ಸೇರಿ",
    "4740": "ಮರೆಯ",
    "4741": "ೆಲ್",
    "4742": "ುವುದಕ್ಕೆ ",
    "4743": "ಸುದ್ದಿ ",
    "4744": "ಹೊ",
    "4745": "ದು.",
    "4746": " ವಿವೇಕ",
    "4747": "ಅವುಗಳಲ್ಲಿ ",
    "4748": "ಬ್ರಮಣ",
    "4749": "ಹಿಂ",
    "4750": "ದಲ್ಲಿ ಈ",
    "4751": "ಳುವ",
    "4752": " ಶಿಕ್ಷಕ",
    "4753": "ಬೇಕಾದರೂ",
    "4754": " ಬಾಲಕ",
    "4755": "ಕ್ಕೆ ಒಳಗ",
    "4756": "35",
    "4757": "ಜಿಎಸ್‌",
    "4758": "ವೆಚ್ಚ",
    "4759": "ಪ್ರತಿಯೊಂದು ",
    "4760": " ಇರುತ್ತದೆ.\n\n",
    "4761": "ಿರುತ್ತವೆ.\n\n",
    "4762": "21",
    "4763": "ನೆಗಳನ್ನು ",
    "4764": "ಅದು ಹ",
    "4765": "ಮಾಡುತ್ತದೆ.\n\n",
    "4766": "ನ್ಮ",
    "4767": "ಹಣ್ಣ",
    "4768": " ಹ್ಯಾ",
    "4769": "ರಿದ್ದರು.\n\n",
    "4770": "ಿನಯ",
    "4771": " ಶೇ.\n\n",
    "4772": "ವಾಗಿರಲಿಲ್ಲ.\n\n",
    "4773": "ಕ್ಷೇತ್ರದಲ್ಲಿ ",
    "4774": "ಗಟ್ಟ",
    "4775": " ಪಾರ್ಟ",
    "4776": "ತಾವು ",
    "4777": "ಪುಸ್ತಕ",
    "4778": "ಯಶಸ್ಸು ",
    "4779": "ಂದ್ರಾ",
    "4780": " ಎಸ್ಯ",
    "4781": "ಿದ್ದಾಗ",
    "4782": "ಿಗರು ",
    "4783": "ರಾಯಲ್",
    "4784": "ಕಪ್",
    "4785": "ವೀಪ",
    "4786": " ಒಳಗ",
    "4787": "ಒಣಗ",
    "4788": "ಡ್ಡಾ",
    "4789": "ಮಾನತ",
    "4790": "ಮ್ಯಾನ್",
    "4791": " ಕಾರ್ಯದಲ್ಲಿ ",
    "4792": "ಿ ಅಭ್ಯರ್ಥ",
    "4793": ".\n\nನಾವು ",
    "4794": "ೇವೆ.\n\n",
    "4795": "ಾಟ್",
    "4796": "ೊಳಗ",
    "4797": "ಿ ಮತ್ತ",
    "4798": " ಆಗುವ",
    "4799": "ೊಂದಿಗ",
    "4800": "ಭರಿತ",
    "4801": " ಸಂಪನ್ಮೂಲ",
    "4802": "ಹೂಡ",
    "4803": "ಚೋದ",
    "4804": "ಕರು ಮತ್ತು ",
    "4805": "ಂಶು",
    "4806": "ಂಶುಪಾಲ",
    "4807": "ದ ಕೊರ",
    "4808": "ಜನಾಂಗ",
    "4809": " ಜ್ಞಾನೋ",
    "4810": "ುಕ್ರ",
    "4811": "ಅತ್ಯಾಚಾರ",
    "4812": " ಎಸ",
    "4813": "ವನಿಗೆ ",
    "4814": "ಸಣ್ಣ",
    "4815": " ಶಂಕ",
    "4816": " ನಿಮಗೆ ",
    "4817": " ಠಾ",
    "4818": "ತ್ಯಾಗ",
    "4819": " ಜಾ",
    "4820": "ವೇನು?\n\n",
    "4821": "an",
    "4822": "ಪೂರೈಸ",
    "4823": "ಆಶೀರ್",
    "4824": "ಗಣ್ಯ",
    "4825": "ವೇ",
    "4826": "ಿ ತ",
    "4827": "ಡಿಕಾರ",
    "4828": "ಿಸಿತ",
    "4829": "ಾಗಿದ್ದು, ",
    "4830": "ಸುಪ್ರೀಂಕ",
    "4831": "ೆ’ ಎಂದು ಹೇಳಿದರು.\n\n",
    "4832": " ಹುಟ್ಟ",
    "4833": "ಆದರೆ ಅವರು ",
    "4834": "ಪೊಲೀಸರು ತಿಳಿಸಿದ್ದಾರೆ.\n\n",
    "4835": "34",
    "4836": "ಟೀಂ ಇಂಡಿಯಾ",
    "4837": "ಶ್ರದ್ಧ",
    "4838": " ಇಟ್ಟ",
    "4839": " ಪೊಲೀಸರಿಗೆ ",
    "4840": " ಕೈಗೊಂಡ",
    "4841": "ಗರ್ಭ",
    "4842": "ಆದಾಯ",
    "4843": " ಜೇಟ್",
    "4844": "ಕೃಷ್ಣ",
    "4845": "ಹಾಳ",
    "4846": " ಯಶಸ್ವ",
    "4847": ": 2",
    "4848": " ನಷ್ಟ",
    "4849": "ಹೇಳಿದ್ದು: “",
    "4850": "ೆಂದರ",
    "4851": "ಹುಲ್‌",
    "4852": "ಿಕೆಯಲ್ಲಿ ",
    "4853": "ಮೈಸೂರು ",
    "4854": "ಬಾಲಿವುಡ್‌",
    "4855": " ನಗ",
    "4856": "ಸಮಸ್ಯೆ ",
    "4857": "ಹೋರಾಟ",
    "4858": "ುತ್ತಿದ್ದೇವೆ.\n\n",
    "4859": "ದಾಗಿ ",
    "4860": "ಿ ಹತ್ಯ",
    "4861": "ಮ್ರ",
    "4862": "ಮಿನ",
    "4863": " ಮ್ಯಾ",
    "4864": " ಆಗಿದ್ದ",
    "4865": "ಪಟ್ಟಣ",
    "4866": "ಫ್ಟ್",
    "4867": "ಸುಂದರ",
    "4868": "ೋನಿಯಾ",
    "4869": " ದಿಗ್",
    "4870": " ವಾಕ್ಯ",
    "4871": "ುತ್ತದೆ?\n\n",
    "4872": "ರ್‌ಗೆ ",
    "4873": "ಶ್ವರ್",
    "4874": "ಣೆ\n\n",
    "4875": "ತರಬೇ",
    "4876": "ಮೆಚ್ಚ",
    "4877": "ಲಿಂಗ್",
    "4878": " ಮಾಡುತ್ತಿದ್ದ",
    "4879": "ಕಣ್ಣ",
    "4880": "ಬ್ರಿ",
    "4881": "ಆಡ",
    "4882": "ಇನ್ನಷ್ಟು ",
    "4883": "ೆಗಳಿಂದ",
    "4884": " ಉಪಸ್ಥಿತರಿದ್ದರು.\n\n",
    "4885": "ಚಾರ್ಯ",
    "4886": "ಟಲ್",
    "4887": "ಿ ಮೇಲೆ ",
    "4888": "ಂಬ್",
    "4889": " ಕಾಪ",
    "4890": " ಖರೀದ",
    "4891": "ಜ್ಞಾಪ",
    "4892": "ರ್\n\n",
    "4893": " ಎಂಬುದ",
    "4894": "ಸಿಗೆ ",
    "4895": "ಇವು ",
    "4896": "ೆ ಜ",
    "4897": "ಕ್ಕೆ",
    "4898": "ಕ್ಕೇ",
    "4899": "ಿಯಲ್ಲಿರುವ",
    "4900": " ಪುರುಷ",
    "4901": "ಎಲ್ಲಿ ",
    "4902": " ಗುರು",
    "4903": " ಡ್ರ",
    "4904": "ಿಕಲ್",
    "4905": "ಮತ್ತೊಂದು ",
    "4906": "ಡುವ",
    "4907": "ಶೇಖರ",
    "4908": "ಾಲರ್",
    "4909": " ಮೌ",
    "4910": "ನಿಂಗ್",
    "4911": "ಳ್ಳೇ",
    "4912": " ಏರ್",
    "4913": "ಪ್ರದಾಯ",
    "4914": " ಸನ್ನಿವೇಶ",
    "4915": " ತಡ",
    "4916": " ವಿತರಿಸ",
    "4917": "ವಿವೇಕ",
    "4918": " ಒತ್ತಡ",
    "4919": "ನಮಗ",
    "4920": "ಗ್ರಾಹ",
    "4921": "ಂಟ್ರ",
    "4922": "ತಾಳ್ಮ",
    "4923": " ಹೆಂಡ",
    "4924": "ತಡೆಗ",
    "4925": " ಹೆಸರನ್ನು ",
    "4926": ". ಎನ್",
    "4927": "ಸಾಧ್ಯವಿಲ್ಲ.\n\n",
    "4928": "ಿಸುತ್ತೇವ",
    "4929": "ುಗಳಿಂದ",
    "4930": "ಉಸಿ",
    "4931": "ಬಾಯ",
    "4932": "ಸ್ನೇಹಿತ",
    "4933": "ಆಧಾರ್",
    "4934": " ಜೋಡ",
    "4935": "ಲ್ಲೇಖ",
    "4936": " ಒಟ್ಟು ",
    "4937": "ರ ಮೇಲೆ ",
    "4938": "ತೂಹಲ",
    "4939": "ಳಿಕೆ ",
    "4940": "ಅದೊಂದು ",
    "4941": " ಹೆತ್ತ",
    "4942": " ತರಬೇ",
    "4943": "ಿಲ್ಲ.\n\nಇದು ",
    "4944": "ಸ್ಸು ",
    "4945": "ಕೆಳಗಿನ",
    "4946": "ಯೋಗ್ಯ",
    "4947": " ಬುದ್ಧ",
    "4948": "ಐದು ",
    "4949": " ಸುಲಭ",
    "4950": "ಲಿ\n\n",
    "4951": "ಂಟರ್‌",
    "4952": "ೋಣ.\n\n",
    "4953": "ೀರಿ?\n\n",
    "4954": "ಲ್ಕತ್ತ",
    "4955": "ಹವನ್ನು ",
    "4956": "ಜೇ",
    "4957": "ಿ ಅಥವಾ",
    "4958": "ಲಿವೆ.\n\n",
    "4959": "ಜಿಲೆಂಡ್",
    "4960": " ಶಾರ",
    "4961": " ಚುನಾವಣೆಗೆ ",
    "4962": " ಡೌ",
    "4963": ", ಜಿಲ್ಲಾ",
    "4964": "ದೇಶವನ್ನು ",
    "4965": " ವಾಗ್ದ",
    "4966": "ರೈಲು ",
    "4967": "ದಾದ",
    "4968": "ಿಂತಲೂ",
    "4969": "ೆಲಿ",
    "4970": " ನೆನ",
    "4971": "ಗಾಂಧ",
    "4972": "ೆಯೇ?\n\n",
    "4973": ".\n\nಅವರು ",
    "4974": "ತ್ಪತ್ತ",
    "4975": "ಆರೋಪಿಗಳ",
    "4976": "ಖಾ",
    "4977": "ವಿಟ",
    "4978": "ಬೊ",
    "4979": " ಮುಖ್ಯಮಂತ್ರ",
    "4980": "ಬಿಗ",
    "4981": "ೆ ಎರಡ",
    "4982": "ಸಿಸಿ",
    "4983": ". ಎಚ್",
    "4984": "ಇಂಡಿಯಾ",
    "4985": "ಮತಾ",
    "4986": " ಬ್ಯಾನ",
    "4987": "ೋಸ್ಕರ",
    "4988": "ಆಶ್ಚರ್ಯ",
    "4989": "ಮೀಸ",
    "4990": "ುದಾನ",
    "4991": "ಂಬಳ",
    "4992": " ಮೊತ್ತ",
    "4993": "ುನ್",
    "4994": "ತರಕಾರ",
    "4995": "ಓರ್ವ",
    "4996": "ಆಯ್ಕೆ ",
    "4997": " ಟೆಸ್",
    "4998": "ಇಂಗ್ಲಿಷ್‌",
    "4999": "ಂಗಾ"
  },
  "bpe_merges": [
    [
      159,
      1
    ],
    [
      0,
      0
    ],
    [
      15,
      196
    ],
    [
      162,
      1
    ],
    [
      157,
      1
    ],
    [
      148,
      168
    ],
    [
      136,
      168
    ],
    [
      157,
      138
    ],
    [
      140,
      168
    ],
    [
      156,
      147
    ],
    [
      200,
      148
    ],
    [
      156,
      124
    ],
    [
      107,
      138
    ],
    [
      168,
      147
    ],
    [
      201,
      136
    ],
    [
      203,
      140
    ],
    [
      157,
      153
    ],
    [
      122,
      168
    ],
    [
      124,
      149
    ],
    [
      153,
      168
    ],
    [
      147,
      168
    ],
    [
      1,
      145
    ],
    [
      162,
      197
    ],
    [
      168,
      146
    ],
    [
      168,
      138
    ],
    [
      1,
      153
    ],
    [
      210,
      195
    ],
    [
      1,
      122
    ],
    [
      147,
      159
    ],
    [
      124,
      198
    ],
    [
      157,
      146
    ],
    [
      162,
      146
    ],
    [
      1,
      141
    ],
    [
      205,
      199
    ],
    [
      202,
      219
    ],
    [
      1,
      109
    ],
    [
      1,
      140
    ],
    [
      150,
      157
    ],
    [
      157,
      122
    ],
    [
      150,
      147
    ],
    [
      168,
      131
    ],
    [
      1,
      143
    ],
    [
      1,
      154
    ],
    [
      145,
      156
    ],
    [
      159,
      150
    ],
    [
      159,
      209
    ],
    [
      159,
      138
    ],
    [
      212,
      122
    ],
    [
      147,
      157
    ],
    [
      159,
      197
    ],
    [
      13,
      1
    ],
    [
      156,
      140
    ],
    [
      107,
      133
    ],
    [
      140,
      157
    ],
    [
      202,
      217
    ],
    [
      107,
      136
    ],
    [
      207,
      195
    ],
    [
      147,
      156
    ],
    [
      111,
      138
    ],
    [
      150,
      156
    ],
    [
      150,
      206
    ],
    [
      141,
      208
    ],
    [
      1,
      110
    ],
    [
      212,
      152
    ],
    [
      156,
      150
    ],
    [
      156,
      146
    ],
    [
      209,
      195
    ],
    [
      157,
      136
    ],
    [
      1,
      116
    ],
    [
      147,
      195
    ],
    [
      201,
      147
    ],
    [
      157,
      140
    ],
    [
      227,
      208
    ],
    [
      223,
      197
    ],
    [
      229,
      204
    ],
    [
      157,
      224
    ],
    [
      145,
      168
    ],
    [
      131,
      235
    ],
    [
      138,
      228
    ],
    [
      157,
      205
    ],
    [
      107,
      143
    ],
    [
      107,
      124
    ],
    [
      1,
      136
    ],
    [
      138,
      147
    ],
    [
      152,
      235
    ],
    [
      1,
      138
    ],
    [
      1,
      150
    ],
    [
      213,
      195
    ],
    [
      242,
      198
    ],
    [
      1,
      232
    ],
    [
      28,
      196
    ],
    [
      157,
      223
    ],
    [
      156,
      133
    ],
    [
      163,
      122
    ],
    [
      269,
      217
    ],
    [
      122,
      204
    ],
    [
      131,
      168
    ],
    [
      157,
      207
    ],
    [
      271,
      145
    ],
    [
      156,
      138
    ],
    [
      136,
      157
    ],
    [
      156,
      148
    ],
    [
      204,
      168
    ],
    [
      238,
      133
    ],
    [
      163,
      149
    ],
    [
      1,
      124
    ],
    [
      148,
      206
    ],
    [
      143,
      168
    ],
    [
      148,
      195
    ],
    [
      150,
      195
    ],
    [
      213,
      221
    ],
    [
      1,
      111
    ],
    [
      163,
      151
    ],
    [
      1,
      128
    ],
    [
      206,
      199
    ],
    [
      126,
      168
    ],
    [
      149,
      168
    ],
    [
      157,
      150
    ],
    [
      150,
      221
    ],
    [
      1,
      147
    ],
    [
      311,
      149
    ],
    [
      234,
      195
    ],
    [
      141,
      168
    ],
    [
      165,
      247
    ],
    [
      162,
      138
    ],
    [
      214,
      137
    ],
    [
      286,
      150
    ],
    [
      140,
      158
    ],
    [
      143,
      288
    ],
    [
      122,
      147
    ],
    [
      211,
      202
    ],
    [
      239,
      241
    ],
    [
      274,
      197
    ],
    [
      216,
      261
    ],
    [
      145,
      261
    ],
    [
      162,
      148
    ],
    [
      145,
      159
    ],
    [
      310,
      126
    ],
    [
      122,
      156
    ],
    [
      162,
      224
    ],
    [
      162,
      196
    ],
    [
      139,
      218
    ],
    [
      159,
      122
    ],
    [
      133,
      168
    ],
    [
      140,
      195
    ],
    [
      216,
      287
    ],
    [
      110,
      278
    ],
    [
      1,
      146
    ],
    [
      157,
      124
    ],
    [
      1,
      126
    ],
    [
      201,
      146
    ],
    [
      198,
      116
    ],
    [
      1,
      151
    ],
    [
      140,
      156
    ],
    [
      157,
      147
    ],
    [
      1,
      144
    ],
    [
      252,
      128
    ],
    [
      255,
      199
    ],
    [
      151,
      168
    ],
    [
      218,
      156
    ],
    [
      143,
      157
    ],
    [
      253,
      195
    ],
    [
      153,
      156
    ],
    [
      231,
      157
    ],
    [
      168,
      139
    ],
    [
      124,
      168
    ],
    [
      166,
      124
    ],
    [
      302,
      143
    ],
    [
      147,
      211
    ],
    [
      157,
      209
    ],
    [
      143,
      154
    ],
    [
      162,
      160
    ],
    [
      140,
      159
    ],
    [
      133,
      157
    ],
    [
      163,
      150
    ],
    [
      148,
      158
    ],
    [
      204,
      136
    ],
    [
      1,
      113
    ],
    [
      154,
      299
    ],
    [
      162,
      124
    ],
    [
      136,
      199
    ],
    [
      162,
      332
    ],
    [
      240,
      138
    ],
    [
      141,
      133
    ],
    [
      107,
      139
    ],
    [
      165,
      207
    ],
    [
      109,
      138
    ],
    [
      165,
      315
    ],
    [
      226,
      228
    ],
    [
      140,
      259
    ],
    [
      140,
      198
    ],
    [
      158,
      146
    ],
    [
      216,
      159
    ],
    [
      148,
      157
    ],
    [
      1,
      214
    ],
    [
      214,
      136
    ],
    [
      162,
      213
    ],
    [
      341,
      198
    ],
    [
      146,
      156
    ],
    [
      206,
      160
    ],
    [
      162,
      153
    ],
    [
      122,
      208
    ],
    [
      1,
      119
    ],
    [
      220,
      107
    ],
    [
      222,
      204
    ],
    [
      276,
      168
    ],
    [
      136,
      225
    ],
    [
      140,
      133
    ],
    [
      138,
      307
    ],
    [
      153,
      107
    ],
    [
      226,
      221
    ],
    [
      128,
      162
    ],
    [
      109,
      234
    ],
    [
      149,
      211
    ],
    [
      153,
      157
    ],
    [
      109,
      150
    ],
    [
      3,
      3
    ],
    [
      205,
      197
    ],
    [
      364,
      244
    ],
    [
      165,
      370
    ],
    [
      317,
      141
    ],
    [
      254,
      138
    ],
    [
      222,
      159
    ],
    [
      243,
      207
    ],
    [
      162,
      169
    ],
    [
      163,
      147
    ],
    [
      246,
      195
    ],
    [
      203,
      146
    ],
    [
      153,
      159
    ],
    [
      128,
      140
    ],
    [
      229,
      268
    ],
    [
      136,
      140
    ],
    [
      139,
      246
    ],
    [
      220,
      157
    ],
    [
      163,
      148
    ],
    [
      322,
      133
    ],
    [
      220,
      156
    ],
    [
      160,
      133
    ],
    [
      360,
      224
    ],
    [
      138,
      219
    ],
    [
      263,
      251
    ],
    [
      148,
      156
    ],
    [
      162,
      214
    ],
    [
      159,
      196
    ],
    [
      147,
      160
    ],
    [
      138,
      205
    ],
    [
      207,
      208
    ],
    [
      160,
      148
    ],
    [
      150,
      163
    ],
    [
      147,
      166
    ],
    [
      250,
      198
    ],
    [
      138,
      359
    ],
    [
      365,
      241
    ],
    [
      157,
      213
    ],
    [
      135,
      168
    ],
    [
      128,
      168
    ],
    [
      346,
      251
    ],
    [
      156,
      122
    ],
    [
      195,
      154
    ],
    [
      162,
      147
    ],
    [
      1,
      148
    ],
    [
      109,
      316
    ],
    [
      1,
      18
    ],
    [
      163,
      140
    ],
    [
      216,
      156
    ],
    [
      126,
      157
    ],
    [
      136,
      198
    ],
    [
      236,
      433
    ],
    [
      406,
      141
    ],
    [
      144,
      371
    ],
    [
      211,
      240
    ],
    [
      123,
      218
    ],
    [
      159,
      13
    ],
    [
      162,
      13
    ],
    [
      377,
      217
    ],
    [
      250,
      147
    ],
    [
      136,
      147
    ],
    [
      159,
      124
    ],
    [
      231,
      158
    ],
    [
      301,
      249
    ],
    [
      324,
      135
    ],
    [
      162,
      154
    ],
    [
      165,
      147
    ],
    [
      233,
      318
    ],
    [
      213,
      228
    ],
    [
      220,
      145
    ],
    [
      146,
      259
    ],
    [
      159,
      245
    ],
    [
      162,
      245
    ],
    [
      131,
      199
    ],
    [
      145,
      140
    ],
    [
      122,
      159
    ],
    [
      166,
      138
    ],
    [
      146,
      204
    ],
    [
      1,
      131
    ],
    [
      238,
      140
    ],
    [
      138,
      292
    ],
    [
      160,
      215
    ],
    [
      211,
      199
    ],
    [
      214,
      141
    ],
    [
      243,
      224
    ],
    [
      154,
      157
    ],
    [
      279,
      195
    ],
    [
      150,
      140
    ],
    [
      236,
      157
    ],
    [
      215,
      290
    ],
    [
      17,
      17
    ],
    [
      210,
      160
    ],
    [
      215,
      137
    ],
    [
      262,
      244
    ],
    [
      107,
      265
    ],
    [
      230,
      234
    ],
    [
      140,
      421
    ],
    [
      135,
      198
    ],
    [
      1,
      142
    ],
    [
      1,
      112
    ],
    [
      157,
      197
    ],
    [
      226,
      206
    ],
    [
      312,
      217
    ],
    [
      148,
      163
    ],
    [
      159,
      147
    ],
    [
      351,
      218
    ],
    [
      231,
      133
    ],
    [
      211,
      239
    ],
    [
      143,
      162
    ],
    [
      203,
      180
    ],
    [
      223,
      150
    ],
    [
      276,
      208
    ],
    [
      212,
      136
    ],
    [
      122,
      330
    ],
    [
      211,
      168
    ],
    [
      139,
      233
    ],
    [
      336,
      258
    ],
    [
      414,
      153
    ],
    [
      156,
      149
    ],
    [
      147,
      198
    ],
    [
      208,
      156
    ],
    [
      214,
      180
    ],
    [
      138,
      218
    ],
    [
      107,
      144
    ],
    [
      107,
      131
    ],
    [
      325,
      268
    ],
    [
      199,
      153
    ],
    [
      152,
      168
    ],
    [
      122,
      165
    ],
    [
      215,
      180
    ],
    [
      122,
      162
    ],
    [
      136,
      156
    ],
    [
      216,
      429
    ],
    [
      140,
      163
    ],
    [
      163,
      441
    ],
    [
      116,
      205
    ],
    [
      237,
      394
    ],
    [
      384,
      195
    ],
    [
      124,
      159
    ],
    [
      214,
      146
    ],
    [
      225,
      156
    ],
    [
      107,
      122
    ],
    [
      147,
      133
    ],
    [
      126,
      204
    ],
    [
      1,
      320
    ],
    [
      15,
      1
    ],
    [
      150,
      154
    ],
    [
      140,
      166
    ],
    [
      156,
      153
    ],
    [
      159,
      213
    ],
    [
      138,
      148
    ],
    [
      140,
      228
    ],
    [
      145,
      157
    ],
    [
      156,
      123
    ],
    [
      116,
      251
    ],
    [
      202,
      268
    ],
    [
      323,
      244
    ],
    [
      145,
      204
    ],
    [
      258,
      135
    ],
    [
      449,
      135
    ],
    [
      233,
      382
    ],
    [
      225,
      206
    ],
    [
      522,
      437
    ],
    [
      225,
      221
    ],
    [
      160,
      147
    ],
    [
      160,
      264
    ],
    [
      200,
      180
    ],
    [
      107,
      126
    ],
    [
      159,
      285
    ],
    [
      157,
      13
    ],
    [
      150,
      215
    ],
    [
      199,
      154
    ],
    [
      225,
      228
    ],
    [
      358,
      215
    ],
    [
      248,
      215
    ],
    [
      319,
      337
    ],
    [
      146,
      168
    ],
    [
      257,
      124
    ],
    [
      138,
      163
    ],
    [
      302,
      302
    ],
    [
      156,
      135
    ],
    [
      281,
      218
    ],
    [
      355,
      463
    ],
    [
      162,
      285
    ],
    [
      159,
      275
    ],
    [
      119,
      251
    ],
    [
      107,
      141
    ],
    [
      222,
      208
    ],
    [
      198,
      298
    ],
    [
      157,
      245
    ],
    [
      110,
      124
    ],
    [
      148,
      327
    ],
    [
      211,
      303
    ],
    [
      241,
      163
    ],
    [
      222,
      166
    ],
    [
      141,
      156
    ],
    [
      140,
      293
    ],
    [
      243,
      136
    ],
    [
      147,
      135
    ],
    [
      162,
      205
    ],
    [
      154,
      376
    ],
    [
      338,
      133
    ],
    [
      143,
      207
    ],
    [
      122,
      215
    ],
    [
      147,
      158
    ],
    [
      1,
      253
    ],
    [
      204,
      199
    ],
    [
      399,
      218
    ],
    [
      216,
      442
    ],
    [
      202,
      218
    ],
    [
      162,
      305
    ],
    [
      223,
      209
    ],
    [
      153,
      154
    ],
    [
      124,
      318
    ],
    [
      1,
      133
    ],
    [
      157,
      282
    ],
    [
      230,
      150
    ],
    [
      156,
      141
    ],
    [
      107,
      128
    ],
    [
      27,
      1
    ],
    [
      326,
      195
    ],
    [
      225,
      160
    ],
    [
      145,
      224
    ],
    [
      380,
      270
    ],
    [
      2,
      196
    ],
    [
      131,
      157
    ],
    [
      149,
      202
    ],
    [
      202,
      335
    ],
    [
      154,
      204
    ],
    [
      297,
      137
    ],
    [
      125,
      131
    ],
    [
      141,
      243
    ],
    [
      142,
      168
    ],
    [
      255,
      249
    ],
    [
      19,
      17
    ],
    [
      113,
      209
    ],
    [
      154,
      159
    ],
    [
      3,
      196
    ],
    [
      344,
      157
    ],
    [
      275,
      379
    ],
    [
      1,
      123
    ],
    [
      211,
      301
    ],
    [
      141,
      272
    ],
    [
      222,
      330
    ],
    [
      223,
      446
    ],
    [
      199,
      109
    ],
    [
      145,
      158
    ],
    [
      162,
      282
    ],
    [
      230,
      144
    ],
    [
      236,
      149
    ],
    [
      1,
      117
    ],
    [
      543,
      198
    ],
    [
      1,
      252
    ],
    [
      308,
      140
    ],
    [
      137,
      254
    ],
    [
      27,
      196
    ],
    [
      528,
      264
    ],
    [
      158,
      215
    ],
    [
      222,
      165
    ],
    [
      279,
      208
    ],
    [
      201,
      150
    ],
    [
      143,
      163
    ],
    [
      145,
      297
    ],
    [
      350,
      371
    ],
    [
      204,
      217
    ],
    [
      366,
      169
    ],
    [
      141,
      492
    ],
    [
      248,
      293
    ],
    [
      233,
      198
    ],
    [
      237,
      299
    ],
    [
      260,
      122
    ],
    [
      242,
      149
    ],
    [
      151,
      157
    ],
    [
      153,
      145
    ],
    [
      148,
      199
    ],
    [
      291,
      180
    ],
    [
      141,
      159
    ],
    [
      150,
      162
    ],
    [
      331,
      207
    ],
    [
      151,
      208
    ],
    [
      153,
      147
    ],
    [
      138,
      159
    ],
    [
      107,
      151
    ],
    [
      156,
      145
    ],
    [
      402,
      395
    ],
    [
      240,
      249
    ],
    [
      357,
      336
    ],
    [
      152,
      146
    ],
    [
      146,
      166
    ],
    [
      237,
      376
    ],
    [
      138,
      198
    ],
    [
      157,
      196
    ],
    [
      154,
      262
    ],
    [
      220,
      159
    ],
    [
      165,
      153
    ],
    [
      144,
      206
    ],
    [
      199,
      145
    ],
    [
      211,
      289
    ],
    [
      216,
      165
    ],
    [
      116,
      214
    ],
    [
      148,
      160
    ],
    [
      122,
      166
    ],
    [
      124,
      165
    ],
    [
      213,
      270
    ],
    [
      207,
      268
    ],
    [
      133,
      225
    ],
    [
      131,
      208
    ],
    [
      122,
      198
    ],
    [
      133,
      472
    ],
    [
      227,
      159
    ],
    [
      220,
      154
    ],
    [
      150,
      160
    ],
    [
      107,
      213
    ],
    [
      242,
      309
    ],
    [
      144,
      156
    ],
    [
      248,
      207
    ],
    [
      154,
      158
    ],
    [
      396,
      145
    ],
    [
      136,
      226
    ],
    [
      161,
      136
    ],
    [
      168,
      180
    ],
    [
      526,
      204
    ],
    [
      447,
      244
    ],
    [
      202,
      451
    ],
    [
      214,
      150
    ],
    [
      649,
      265
    ],
    [
      136,
      210
    ],
    [
      138,
      217
    ],
    [
      162,
      15
    ],
    [
      128,
      199
    ],
    [
      619,
      122
    ],
    [
      333,
      573
    ],
    [
      322,
      304
    ],
    [
      141,
      157
    ],
    [
      140,
      140
    ],
    [
      321,
      241
    ],
    [
      242,
      160
    ],
    [
      473,
      133
    ],
    [
      201,
      145
    ],
    [
      144,
      150
    ],
    [
      300,
      159
    ],
    [
      139,
      204
    ],
    [
      162,
      251
    ],
    [
      166,
      152
    ],
    [
      450,
      130
    ],
    [
      140,
      226
    ],
    [
      211,
      229
    ],
    [
      295,
      408
    ],
    [
      284,
      655
    ],
    [
      230,
      316
    ],
    [
      111,
      205
    ],
    [
      263,
      205
    ],
    [
      277,
      157
    ],
    [
      240,
      229
    ],
    [
      564,
      148
    ],
    [
      254,
      154
    ],
    [
      131,
      215
    ],
    [
      159,
      384
    ],
    [
      280,
      266
    ],
    [
      148,
      162
    ],
    [
      145,
      165
    ],
    [
      124,
      160
    ],
    [
      151,
      156
    ],
    [
      138,
      168
    ],
    [
      331,
      123
    ],
    [
      286,
      209
    ],
    [
      230,
      527
    ],
    [
      116,
      553
    ],
    [
      138,
      195
    ],
    [
      165,
      251
    ],
    [
      256,
      475
    ],
    [
      143,
      149
    ],
    [
      149,
      226
    ],
    [
      116,
      107
    ],
    [
      275,
      241
    ],
    [
      206,
      249
    ],
    [
      238,
      135
    ],
    [
      236,
      162
    ],
    [
      290,
      218
    ],
    [
      211,
      148
    ],
    [
      256,
      427
    ],
    [
      476,
      166
    ],
    [
      215,
      151
    ],
    [
      154,
      206
    ],
    [
      353,
      150
    ],
    [
      444,
      141
    ],
    [
      156,
      131
    ],
    [
      150,
      158
    ],
    [
      140,
      244
    ],
    [
      141,
      215
    ],
    [
      124,
      147
    ],
    [
      381,
      195
    ],
    [
      166,
      131
    ],
    [
      151,
      163
    ],
    [
      199,
      140
    ],
    [
      397,
      251
    ],
    [
      147,
      228
    ],
    [
      109,
      140
    ],
    [
      158,
      150
    ],
    [
      481,
      604
    ],
    [
      150,
      244
    ],
    [
      284,
      698
    ],
    [
      143,
      147
    ],
    [
      147,
      221
    ],
    [
      159,
      234
    ],
    [
      253,
      418
    ],
    [
      331,
      466
    ],
    [
      136,
      293
    ],
    [
      220,
      500
    ],
    [
      150,
      217
    ],
    [
      586,
      318
    ],
    [
      128,
      156
    ],
    [
      460,
      265
    ],
    [
      307,
      168
    ],
    [
      222,
      432
    ],
    [
      214,
      1
    ],
    [
      620,
      640
    ],
    [
      250,
      154
    ],
    [
      124,
      345
    ],
    [
      227,
      133
    ],
    [
      525,
      136
    ],
    [
      154,
      361
    ],
    [
      150,
      204
    ],
    [
      417,
      608
    ],
    [
      150,
      218
    ],
    [
      226,
      163
    ],
    [
      201,
      140
    ],
    [
      258,
      163
    ],
    [
      367,
      285
    ],
    [
      211,
      478
    ],
    [
      149,
      124
    ],
    [
      199,
      329
    ],
    [
      422,
      260
    ],
    [
      109,
      205
    ],
    [
      1,
      351
    ],
    [
      399,
      135
    ],
    [
      158,
      147
    ],
    [
      153,
      162
    ],
    [
      110,
      138
    ],
    [
      140,
      210
    ],
    [
      654,
      153
    ],
    [
      254,
      153
    ],
    [
      458,
      217
    ],
    [
      122,
      432
    ],
    [
      122,
      149
    ],
    [
      369,
      217
    ],
    [
      128,
      157
    ],
    [
      241,
      219
    ],
    [
      211,
      249
    ],
    [
      222,
      156
    ],
    [
      266,
      228
    ],
    [
      1,
      9
    ],
    [
      112,
      220
    ],
    [
      141,
      667
    ],
    [
      154,
      156
    ],
    [
      232,
      140
    ],
    [
      200,
      122
    ],
    [
      227,
      243
    ],
    [
      210,
      133
    ],
    [
      154,
      380
    ],
    [
      154,
      394
    ],
    [
      138,
      266
    ],
    [
      257,
      147
    ],
    [
      153,
      195
    ],
    [
      163,
      128
    ],
    [
      140,
      225
    ],
    [
      136,
      374
    ],
    [
      145,
      505
    ],
    [
      227,
      156
    ],
    [
      206,
      229
    ],
    [
      126,
      312
    ],
    [
      112,
      462
    ],
    [
      150,
      164
    ],
    [
      272,
      195
    ],
    [
      361,
      218
    ],
    [
      281,
      215
    ],
    [
      745,
      224
    ],
    [
      186,
      435
    ],
    [
      153,
      500
    ],
    [
      163,
      124
    ],
    [
      153,
      160
    ],
    [
      211,
      323
    ],
    [
      211,
      474
    ],
    [
      237,
      157
    ],
    [
      1,
      139
    ],
    [
      222,
      164
    ],
    [
      314,
      160
    ],
    [
      342,
      166
    ],
    [
      146,
      138
    ],
    [
      200,
      141
    ],
    [
      411,
      3
    ],
    [
      248,
      123
    ],
    [
      252,
      138
    ],
    [
      215,
      144
    ],
    [
      152,
      218
    ],
    [
      768,
      135
    ],
    [
      148,
      166
    ],
    [
      156,
      379
    ],
    [
      225,
      163
    ],
    [
      147,
      163
    ],
    [
      381,
      221
    ],
    [
      166,
      215
    ],
    [
      590,
      590
    ],
    [
      222,
      162
    ],
    [
      138,
      156
    ],
    [
      147,
      233
    ],
    [
      280,
      163
    ],
    [
      524,
      153
    ],
    [
      143,
      156
    ],
    [
      719,
      133
    ],
    [
      215,
      128
    ],
    [
      202,
      162
    ],
    [
      402,
      226
    ],
    [
      308,
      165
    ],
    [
      342,
      259
    ],
    [
      148,
      144
    ],
    [
      238,
      422
    ],
    [
      428,
      400
    ],
    [
      154,
      452
    ],
    [
      290,
      135
    ],
    [
      203,
      1
    ],
    [
      248,
      224
    ],
    [
      677,
      135
    ],
    [
      163,
      224
    ],
    [
      232,
      139
    ],
    [
      333,
      151
    ],
    [
      110,
      147
    ],
    [
      277,
      247
    ],
    [
      13,
      230
    ],
    [
      146,
      159
    ],
    [
      146,
      792
    ],
    [
      149,
      225
    ],
    [
      256,
      295
    ],
    [
      333,
      135
    ],
    [
      240,
      675
    ],
    [
      107,
      137
    ],
    [
      159,
      305
    ],
    [
      147,
      150
    ],
    [
      195,
      109
    ],
    [
      353,
      140
    ],
    [
      241,
      359
    ],
    [
      153,
      144
    ],
    [
      154,
      135
    ],
    [
      149,
      262
    ],
    [
      1,
      19
    ],
    [
      107,
      201
    ],
    [
      154,
      148
    ],
    [
      233,
      162
    ],
    [
      141,
      260
    ],
    [
      166,
      133
    ],
    [
      122,
      386
    ],
    [
      278,
      160
    ],
    [
      122,
      148
    ],
    [
      144,
      157
    ],
    [
      161,
      279
    ],
    [
      161,
      446
    ],
    [
      226,
      292
    ],
    [
      253,
      221
    ],
    [
      207,
      530
    ],
    [
      403,
      138
    ],
    [
      402,
      319
    ],
    [
      558,
      133
    ],
    [
      211,
      425
    ],
    [
      238,
      265
    ],
    [
      239,
      198
    ],
    [
      18,
      26
    ],
    [
      153,
      198
    ],
    [
      112,
      124
    ],
    [
      243,
      197
    ],
    [
      145,
      162
    ],
    [
      248,
      238
    ],
    [
      158,
      148
    ],
    [
      144,
      259
    ],
    [
      143,
      148
    ],
    [
      124,
      204
    ],
    [
      838,
      265
    ],
    [
      262,
      147
    ],
    [
      148,
      249
    ],
    [
      227,
      258
    ],
    [
      156,
      203
    ],
    [
      128,
      274
    ],
    [
      306,
      247
    ],
    [
      237,
      477
    ],
    [
      140,
      470
    ],
    [
      499,
      463
    ],
    [
      387,
      466
    ],
    [
      615,
      258
    ],
    [
      494,
      265
    ],
    [
      538,
      132
    ],
    [
      153,
      163
    ],
    [
      138,
      793
    ],
    [
      145,
      198
    ],
    [
      230,
      221
    ],
    [
      314,
      164
    ],
    [
      122,
      299
    ],
    [
      13,
      216
    ],
    [
      147,
      164
    ],
    [
      165,
      612
    ],
    [
      362,
      264
    ],
    [
      236,
      354
    ],
    [
      109,
      367
    ],
    [
      320,
      149
    ],
    [
      150,
      168
    ],
    [
      267,
      475
    ],
    [
      158,
      136
    ],
    [
      215,
      145
    ],
    [
      593,
      199
    ],
    [
      373,
      566
    ],
    [
      153,
      650
    ],
    [
      211,
      326
    ],
    [
      238,
      128
    ],
    [
      207,
      218
    ],
    [
      157,
      201
    ],
    [
      230,
      367
    ],
    [
      195,
      116
    ],
    [
      109,
      278
    ],
    [
      220,
      147
    ],
    [
      143,
      204
    ],
    [
      1,
      14
    ],
    [
      234,
      138
    ],
    [
      124,
      208
    ],
    [
      201,
      141
    ],
    [
      140,
      162
    ],
    [
      231,
      681
    ],
    [
      248,
      128
    ],
    [
      136,
      595
    ],
    [
      154,
      168
    ],
    [
      263,
      275
    ],
    [
      262,
      156
    ],
    [
      113,
      141
    ],
    [
      229,
      482
    ],
    [
      143,
      379
    ],
    [
      314,
      158
    ],
    [
      260,
      504
    ],
    [
      200,
      146
    ],
    [
      132,
      591
    ],
    [
      646,
      147
    ],
    [
      417,
      673
    ],
    [
      212,
      393
    ],
    [
      140,
      160
    ],
    [
      202,
      359
    ],
    [
      360,
      124
    ],
    [
      455,
      258
    ],
    [
      216,
      487
    ],
    [
      247,
      168
    ],
    [
      237,
      162
    ],
    [
      138,
      220
    ],
    [
      237,
      206
    ],
    [
      149,
      195
    ],
    [
      122,
      296
    ],
    [
      165,
      133
    ],
    [
      223,
      196
    ],
    [
      117,
      339
    ],
    [
      131,
      595
    ],
    [
      22,
      17
    ],
    [
      781,
      280
    ],
    [
      136,
      233
    ],
    [
      306,
      412
    ],
    [
      407,
      270
    ],
    [
      343,
      160
    ],
    [
      146,
      837
    ],
    [
      211,
      157
    ],
    [
      524,
      304
    ],
    [
      13,
      222
    ],
    [
      387,
      207
    ],
    [
      410,
      140
    ],
    [
      230,
      140
    ],
    [
      230,
      665
    ],
    [
      480,
      146
    ],
    [
      136,
      334
    ],
    [
      253,
      147
    ],
    [
      131,
      122
    ],
    [
      231,
      470
    ],
    [
      212,
      180
    ],
    [
      296,
      146
    ],
    [
      1,
      20
    ],
    [
      1,
      516
    ],
    [
      598,
      145
    ],
    [
      124,
      309
    ],
    [
      202,
      346
    ],
    [
      147,
      199
    ],
    [
      254,
      148
    ],
    [
      263,
      207
    ],
    [
      378,
      226
    ],
    [
      231,
      421
    ],
    [
      426,
      287
    ],
    [
      122,
      247
    ],
    [
      766,
      140
    ],
    [
      207,
      904
    ],
    [
      227,
      414
    ],
    [
      338,
      180
    ],
    [
      834,
      195
    ],
    [
      259,
      195
    ],
    [
      231,
      156
    ],
    [
      300,
      908
    ],
    [
      555,
      149
    ],
    [
      215,
      126
    ],
    [
      122,
      264
    ],
    [
      213,
      438
    ],
    [
      159,
      282
    ],
    [
      216,
      682
    ],
    [
      158,
      498
    ],
    [
      1,
      254
    ],
    [
      151,
      214
    ],
    [
      162,
      210
    ],
    [
      141,
      258
    ],
    [
      223,
      245
    ],
    [
      150,
      320
    ],
    [
      480,
      550
    ],
    [
      146,
      361
    ],
    [
      199,
      143
    ],
    [
      138,
      476
    ],
    [
      234,
      270
    ],
    [
      122,
      161
    ],
    [
      199,
      298
    ],
    [
      138,
      244
    ],
    [
      218,
      160
    ],
    [
      670,
      386
    ],
    [
      243,
      772
    ],
    [
      147,
      206
    ],
    [
      391,
      228
    ],
    [
      420,
      202
    ],
    [
      157,
      250
    ],
    [
      605,
      484
    ],
    [
      145,
      209
    ],
    [
      150,
      249
    ],
    [
      804,
      152
    ],
    [
      145,
      442
    ],
    [
      226,
      205
    ],
    [
      762,
      156
    ],
    [
      111,
      502
    ],
    [
      141,
      296
    ],
    [
      755,
      246
    ],
    [
      149,
      536
    ],
    [
      326,
      327
    ],
    [
      231,
      293
    ],
    [
      267,
      295
    ],
    [
      312,
      966
    ],
    [
      145,
      682
    ],
    [
      133,
      156
    ],
    [
      122,
      164
    ],
    [
      246,
      160
    ],
    [
      156,
      136
    ],
    [
      126,
      262
    ],
    [
      159,
      136
    ],
    [
      306,
      205
    ],
    [
      233,
      1023
    ],
    [
      281,
      164
    ],
    [
      226,
      195
    ],
    [
      260,
      262
    ],
    [
      1,
      641
    ],
    [
      237,
      292
    ],
    [
      758,
      289
    ],
    [
      253,
      219
    ],
    [
      257,
      796
    ],
    [
      123,
      247
    ],
    [
      111,
      521
    ],
    [
      225,
      309
    ],
    [
      157,
      135
    ],
    [
      138,
      303
    ],
    [
      110,
      215
    ],
    [
      140,
      294
    ],
    [
      147,
      545
    ],
    [
      220,
      881
    ],
    [
      122,
      545
    ],
    [
      365,
      149
    ],
    [
      124,
      135
    ],
    [
      589,
      234
    ],
    [
      138,
      765
    ],
    [
      280,
      307
    ],
    [
      227,
      1022
    ],
    [
      143,
      164
    ],
    [
      150,
      339
    ],
    [
      140,
      633
    ],
    [
      348,
      1082
    ],
    [
      163,
      200
    ],
    [
      154,
      705
    ],
    [
      349,
      602
    ],
    [
      269,
      335
    ],
    [
      776,
      738
    ],
    [
      214,
      131
    ],
    [
      831,
      246
    ],
    [
      281,
      827
    ],
    [
      157,
      169
    ],
    [
      145,
      147
    ],
    [
      165,
      362
    ],
    [
      148,
      198
    ],
    [
      227,
      147
    ],
    [
      220,
      162
    ],
    [
      151,
      296
    ],
    [
      225,
      294
    ],
    [
      220,
      369
    ],
    [
      248,
      633
    ],
    [
      198,
      153
    ],
    [
      587,
      122
    ],
    [
      347,
      157
    ],
    [
      231,
      228
    ],
    [
      350,
      156
    ],
    [
      138,
      157
    ],
    [
      144,
      131
    ],
    [
      216,
      124
    ],
    [
      237,
      395
    ],
    [
      267,
      427
    ],
    [
      144,
      160
    ],
    [
      229,
      195
    ],
    [
      236,
      156
    ],
    [
      860,
      573
    ],
    [
      239,
      445
    ],
    [
      138,
      550
    ],
    [
      341,
      468
    ],
    [
      216,
      140
    ],
    [
      586,
      382
    ],
    [
      341,
      483
    ],
    [
      15,
      263
    ],
    [
      263,
      553
    ],
    [
      202,
      198
    ],
    [
      253,
      283
    ],
    [
      555,
      246
    ],
    [
      215,
      146
    ],
    [
      200,
      653
    ],
    [
      138,
      230
    ],
    [
      222,
      296
    ],
    [
      111,
      471
    ],
    [
      209,
      147
    ],
    [
      136,
      159
    ],
    [
      148,
      225
    ],
    [
      246,
      217
    ],
    [
      222,
      215
    ],
    [
      141,
      204
    ],
    [
      519,
      149
    ],
    [
      808,
      288
    ],
    [
      389,
      131
    ],
    [
      232,
      412
    ],
    [
      1,
      118
    ],
    [
      124,
      382
    ],
    [
      212,
      401
    ],
    [
      138,
      208
    ],
    [
      154,
      292
    ],
    [
      240,
      321
    ],
    [
      350,
      206
    ],
    [
      243,
      140
    ],
    [
      15,
      648
    ],
    [
      213,
      292
    ],
    [
      713,
      408
    ],
    [
      459,
      136
    ],
    [
      256,
      158
    ],
    [
      517,
      975
    ],
    [
      358,
      293
    ],
    [
      723,
      160
    ],
    [
      337,
      382
    ],
    [
      1208,
      152
    ],
    [
      231,
      131
    ],
    [
      151,
      218
    ],
    [
      124,
      166
    ],
    [
      778,
      195
    ],
    [
      139,
      140
    ],
    [
      119,
      362
    ],
    [
      428,
      981
    ],
    [
      233,
      156
    ],
    [
      337,
      318
    ],
    [
      133,
      199
    ],
    [
      159,
      154
    ],
    [
      396,
      225
    ],
    [
      298,
      202
    ],
    [
      157,
      203
    ],
    [
      393,
      135
    ],
    [
      107,
      291
    ],
    [
      157,
      212
    ],
    [
      154,
      934
    ],
    [
      216,
      204
    ],
    [
      138,
      222
    ],
    [
      109,
      345
    ],
    [
      150,
      210
    ],
    [
      237,
      159
    ],
    [
      372,
      141
    ],
    [
      136,
      415
    ],
    [
      1173,
      1054
    ],
    [
      297,
      150
    ],
    [
      464,
      386
    ],
    [
      622,
      738
    ],
    [
      199,
      141
    ],
    [
      109,
      250
    ],
    [
      312,
      159
    ],
    [
      162,
      272
    ],
    [
      232,
      122
    ],
    [
      230,
      138
    ],
    [
      111,
      210
    ],
    [
      368,
      197
    ],
    [
      214,
      254
    ],
    [
      373,
      289
    ],
    [
      158,
      126
    ],
    [
      126,
      140
    ],
    [
      434,
      418
    ],
    [
      236,
      207
    ],
    [
      122,
      497
    ],
    [
      119,
      207
    ],
    [
      124,
      260
    ],
    [
      295,
      637
    ],
    [
      296,
      1293
    ],
    [
      157,
      400
    ],
    [
      122,
      131
    ],
    [
      389,
      141
    ],
    [
      279,
      163
    ],
    [
      444,
      139
    ],
    [
      517,
      226
    ],
    [
      240,
      289
    ],
    [
      109,
      145
    ],
    [
      546,
      156
    ],
    [
      284,
      554
    ],
    [
      133,
      202
    ],
    [
      136,
      166
    ],
    [
      165,
      408
    ],
    [
      136,
      158
    ],
    [
      107,
      212
    ],
    [
      357,
      927
    ],
    [
      232,
      205
    ],
    [
      281,
      299
    ],
    [
      207,
      147
    ],
    [
      267,
      403
    ],
    [
      13,
      227
    ],
    [
      218,
      503
    ],
    [
      238,
      1096
    ],
    [
      153,
      208
    ],
    [
      230,
      829
    ],
    [
      506,
      221
    ],
    [
      211,
      571
    ],
    [
      143,
      420
    ],
    [
      116,
      532
    ],
    [
      240,
      204
    ],
    [
      150,
      202
    ],
    [
      1,
      120
    ],
    [
      349,
      225
    ],
    [
      503,
      233
    ],
    [
      166,
      278
    ],
    [
      494,
      279
    ],
    [
      111,
      234
    ],
    [
      145,
      136
    ],
    [
      253,
      163
    ],
    [
      886,
      152
    ],
    [
      234,
      334
    ],
    [
      448,
      270
    ],
    [
      154,
      162
    ],
    [
      347,
      208
    ],
    [
      464,
      138
    ],
    [
      878,
      199
    ],
    [
      143,
      208
    ],
    [
      124,
      485
    ],
    [
      195,
      329
    ],
    [
      401,
      228
    ],
    [
      216,
      207
    ],
    [
      232,
      795
    ],
    [
      225,
      292
    ],
    [
      703,
      199
    ],
    [
      556,
      188
    ],
    [
      826,
      1046
    ],
    [
      227,
      272
    ],
    [
      439,
      197
    ],
    [
      232,
      147
    ],
    [
      1132,
      445
    ],
    [
      220,
      160
    ],
    [
      140,
      801
    ],
    [
      725,
      152
    ],
    [
      398,
      320
    ],
    [
      263,
      715
    ],
    [
      1,
      224
    ],
    [
      223,
      136
    ],
    [
      1,
      843
    ],
    [
      109,
      144
    ],
    [
      237,
      705
    ],
    [
      436,
      123
    ],
    [
      109,
      665
    ],
    [
      138,
      246
    ],
    [
      110,
      136
    ],
    [
      111,
      228
    ],
    [
      150,
      307
    ],
    [
      227,
      667
    ],
    [
      301,
      413
    ],
    [
      158,
      348
    ],
    [
      146,
      218
    ],
    [
      151,
      166
    ],
    [
      785,
      195
    ],
    [
      267,
      775
    ],
    [
      257,
      131
    ],
    [
      138,
      158
    ],
    [
      198,
      329
    ],
    [
      212,
      295
    ],
    [
      136,
      902
    ],
    [
      252,
      145
    ],
    [
      212,
      375
    ],
    [
      355,
      920
    ],
    [
      610,
      156
    ],
    [
      236,
      164
    ],
    [
      153,
      215
    ],
    [
      259,
      135
    ],
    [
      226,
      160
    ],
    [
      144,
      163
    ],
    [
      1032,
      294
    ],
    [
      611,
      266
    ],
    [
      1,
      184
    ],
    [
      992,
      551
    ],
    [
      165,
      149
    ],
    [
      205,
      160
    ],
    [
      378,
      319
    ],
    [
      646,
      145
    ],
    [
      501,
      17
    ],
    [
      220,
      164
    ],
    [
      117,
      140
    ],
    [
      147,
      225
    ],
    [
      343,
      309
    ],
    [
      739,
      648
    ],
    [
      584,
      403
    ],
    [
      585,
      557
    ],
    [
      229,
      467
    ],
    [
      267,
      787
    ],
    [
      216,
      297
    ],
    [
      141,
      147
    ],
    [
      157,
      305
    ],
    [
      320,
      246
    ],
    [
      256,
      156
    ],
    [
      110,
      1303
    ],
    [
      291,
      340
    ],
    [
      136,
      454
    ],
    [
      148,
      274
    ],
    [
      195,
      153
    ],
    [
      140,
      275
    ],
    [
      230,
      205
    ],
    [
      915,
      154
    ],
    [
      319,
      219
    ],
    [
      281,
      354
    ],
    [
      230,
      732
    ],
    [
      410,
      339
    ],
    [
      236,
      163
    ],
    [
      333,
      353
    ],
    [
      13,
      220
    ],
    [
      363,
      168
    ],
    [
      267,
      950
    ],
    [
      238,
      136
    ],
    [
      1,
      986
    ],
    [
      195,
      298
    ],
    [
      1,
      22
    ],
    [
      308,
      274
    ],
    [
      205,
      321
    ],
    [
      374,
      309
    ],
    [
      135,
      156
    ],
    [
      161,
      209
    ],
    [
      539,
      133
    ],
    [
      998,
      334
    ],
    [
      231,
      225
    ],
    [
      709,
      561
    ],
    [
      348,
      137
    ],
    [
      109,
      141
    ],
    [
      1,
      197
    ],
    [
      873,
      534
    ],
    [
      116,
      207
    ],
    [
      295,
      1144
    ],
    [
      326,
      244
    ],
    [
      236,
      154
    ],
    [
      689,
      266
    ],
    [
      199,
      110
    ],
    [
      690,
      158
    ],
    [
      630,
      187
    ],
    [
      199,
      122
    ],
    [
      452,
      1192
    ],
    [
      618,
      728
    ],
    [
      111,
      150
    ],
    [
      133,
      198
    ],
    [
      1445,
      137
    ],
    [
      294,
      168
    ],
    [
      369,
      148
    ],
    [
      407,
      221
    ],
    [
      925,
      604
    ],
    [
      126,
      906
    ],
    [
      282,
      329
    ],
    [
      166,
      140
    ],
    [
      109,
      829
    ],
    [
      315,
      226
    ],
    [
      142,
      148
    ],
    [
      343,
      168
    ],
    [
      1066,
      564
    ],
    [
      897,
      197
    ],
    [
      233,
      226
    ],
    [
      1288,
      424
    ],
    [
      1492,
      233
    ],
    [
      645,
      18
    ],
    [
      269,
      451
    ],
    [
      140,
      246
    ],
    [
      232,
      554
    ],
    [
      27,
      457
    ],
    [
      374,
      160
    ],
    [
      10,
      196
    ],
    [
      275,
      164
    ],
    [
      284,
      427
    ],
    [
      157,
      148
    ],
    [
      237,
      165
    ],
    [
      235,
      168
    ],
    [
      782,
      233
    ],
    [
      1099,
      273
    ],
    [
      199,
      256
    ],
    [
      138,
      216
    ],
    [
      1477,
      262
    ],
    [
      138,
      124
    ],
    [
      111,
      221
    ],
    [
      110,
      796
    ],
    [
      616,
      217
    ],
    [
      699,
      424
    ],
    [
      771,
      561
    ],
    [
      222,
      597
    ],
    [
      201,
      180
    ],
    [
      203,
      214
    ],
    [
      157,
      145
    ],
    [
      136,
      405
    ],
    [
      991,
      156
    ],
    [
      135,
      694
    ],
    [
      879,
      265
    ],
    [
      647,
      200
    ],
    [
      229,
      853
    ],
    [
      232,
      1137
    ],
    [
      147,
      390
    ],
    [
      230,
      250
    ],
    [
      271,
      180
    ],
    [
      300,
      531
    ],
    [
      898,
      424
    ],
    [
      1036,
      156
    ],
    [
      141,
      265
    ],
    [
      918,
      340
    ],
    [
      257,
      138
    ],
    [
      126,
      1157
    ],
    [
      143,
      146
    ],
    [
      398,
      466
    ],
    [
      424,
      264
    ],
    [
      582,
      394
    ],
    [
      434,
      307
    ],
    [
      211,
      511
    ],
    [
      323,
      206
    ],
    [
      111,
      209
    ],
    [
      248,
      169
    ],
    [
      277,
      210
    ],
    [
      1067,
      208
    ],
    [
      924,
      461
    ],
    [
      150,
      354
    ],
    [
      237,
      148
    ],
    [
      195,
      565
    ],
    [
      125,
      754
    ],
    [
      252,
      131
    ],
    [
      220,
      650
    ],
    [
      623,
      260
    ],
    [
      141,
      515
    ],
    [
      153,
      199
    ],
    [
      943,
      1210
    ],
    [
      913,
      913
    ],
    [
      138,
      236
    ],
    [
      166,
      148
    ],
    [
      212,
      214
    ],
    [
      214,
      265
    ],
    [
      280,
      159
    ],
    [
      277,
      293
    ],
    [
      749,
      122
    ],
    [
      146,
      163
    ],
    [
      166,
      122
    ],
    [
      140,
      454
    ],
    [
      147,
      258
    ],
    [
      231,
      1103
    ],
    [
      133,
      954
    ],
    [
      204,
      195
    ],
    [
      150,
      620
    ],
    [
      143,
      419
    ],
    [
      253,
      217
    ],
    [
      119,
      415
    ],
    [
      131,
      158
    ],
    [
      149,
      244
    ],
    [
      320,
      987
    ],
    [
      344,
      906
    ],
    [
      260,
      168
    ],
    [
      143,
      354
    ],
    [
      131,
      156
    ],
    [
      512,
      249
    ],
    [
      286,
      124
    ],
    [
      220,
      163
    ],
    [
      145,
      149
    ],
    [
      124,
      167
    ],
    [
      150,
      827
    ],
    [
      233,
      366
    ],
    [
      294,
      218
    ],
    [
      156,
      962
    ],
    [
      225,
      195
    ],
    [
      367,
      15
    ],
    [
      568,
      195
    ],
    [
      124,
      531
    ],
    [
      606,
      200
    ],
    [
      706,
      557
    ],
    [
      158,
      124
    ],
    [
      1309,
      338
    ],
    [
      308,
      1112
    ],
    [
      378,
      211
    ],
    [
      216,
      157
    ],
    [
      136,
      488
    ],
    [
      417,
      1064
    ],
    [
      1019,
      325
    ],
    [
      454,
      233
    ],
    [
      140,
      221
    ],
    [
      196,
      112
    ],
    [
      256,
      401
    ],
    [
      367,
      905
    ],
    [
      1548,
      225
    ],
    [
      204,
      534
    ],
    [
      284,
      795
    ],
    [
      237,
      380
    ],
    [
      245,
      128
    ],
    [
      303,
      697
    ],
    [
      154,
      477
    ],
    [
      713,
      209
    ],
    [
      291,
      798
    ],
    [
      222,
      161
    ],
    [
      133,
      158
    ],
    [
      555,
      262
    ],
    [
      256,
      260
    ],
    [
      215,
      139
    ],
    [
      161,
      154
    ],
    [
      691,
      290
    ],
    [
      598,
      958
    ],
    [
      160,
      122
    ],
    [
      122,
      272
    ],
    [
      391,
      270
    ],
    [
      664,
      147
    ],
    [
      357,
      1305
    ],
    [
      267,
      156
    ],
    [
      157,
      272
    ],
    [
      220,
      515
    ],
    [
      263,
      214
    ],
    [
      147,
      202
    ],
    [
      592,
      1118
    ],
    [
      674,
      386
    ],
    [
      143,
      561
    ],
    [
      275,
      148
    ],
    [
      1039,
      693
    ],
    [
      660,
      233
    ],
    [
      119,
      841
    ],
    [
      116,
      643
    ],
    [
      215,
      291
    ],
    [
      237,
      135
    ],
    [
      1152,
      339
    ],
    [
      222,
      297
    ],
    [
      216,
      209
    ],
    [
      517,
      395
    ],
    [
      735,
      900
    ],
    [
      222,
      149
    ],
    [
      18,
      17
    ],
    [
      926,
      218
    ],
    [
      347,
      156
    ],
    [
      611,
      195
    ],
    [
      230,
      526
    ],
    [
      13,
      237
    ],
    [
      145,
      496
    ],
    [
      153,
      1051
    ],
    [
      373,
      202
    ],
    [
      220,
      276
    ],
    [
      143,
      521
    ],
    [
      220,
      148
    ],
    [
      234,
      221
    ],
    [
      163,
      339
    ],
    [
      277,
      207
    ],
    [
      113,
      1437
    ],
    [
      237,
      452
    ],
    [
      1365,
      383
    ],
    [
      122,
      279
    ],
    [
      111,
      1333
    ],
    [
      659,
      1148
    ],
    [
      166,
      151
    ],
    [
      232,
      427
    ],
    [
      138,
      1
    ],
    [
      158,
      258
    ],
    [
      153,
      533
    ],
    [
      481,
      241
    ],
    [
      148,
      164
    ],
    [
      326,
      274
    ],
    [
      789,
      728
    ],
    [
      162,
      27
    ],
    [
      937,
      534
    ],
    [
      148,
      159
    ],
    [
      782,
      153
    ],
    [
      138,
      1008
    ],
    [
      337,
      272
    ],
    [
      236,
      330
    ],
    [
      236,
      561
    ],
    [
      978,
      206
    ],
    [
      310,
      127
    ],
    [
      372,
      209
    ],
    [
      140,
      138
    ],
    [
      111,
      828
    ],
    [
      669,
      133
    ],
    [
      110,
      426
    ],
    [
      141,
      138
    ],
    [
      138,
      515
    ],
    [
      150,
      412
    ],
    [
      151,
      982
    ],
    [
      220,
      144
    ],
    [
      389,
      150
    ],
    [
      143,
      158
    ],
    [
      1327,
      198
    ],
    [
      430,
      289
    ],
    [
      362,
      207
    ],
    [
      119,
      149
    ],
    [
      13,
      1415
    ],
    [
      13,
      231
    ],
    [
      126,
      1115
    ],
    [
      1538,
      153
    ],
    [
      393,
      255
    ],
    [
      204,
      156
    ],
    [
      651,
      990
    ],
    [
      499,
      920
    ],
    [
      459,
      740
    ],
    [
      742,
      180
    ],
    [
      440,
      163
    ],
    [
      616,
      219
    ],
    [
      231,
      349
    ],
    [
      809,
      208
    ],
    [
      197,
      112
    ],
    [
      138,
      576
    ],
    [
      533,
      361
    ],
    [
      122,
      1479
    ],
    [
      317,
      180
    ],
    [
      336,
      145
    ],
    [
      306,
      471
    ],
    [
      150,
      205
    ],
    [
      205,
      163
    ],
    [
      216,
      272
    ],
    [
      111,
      147
    ],
    [
      700,
      195
    ],
    [
      164,
      390
    ],
    [
      641,
      385
    ],
    [
      211,
      377
    ],
    [
      964,
      210
    ],
    [
      277,
      374
    ],
    [
      148,
      1044
    ],
    [
      222,
      545
    ],
    [
      214,
      717
    ],
    [
      215,
      152
    ],
    [
      153,
      266
    ],
    [
      145,
      124
    ],
    [
      1581,
      425
    ],
    [
      592,
      523
    ],
    [
      145,
      126
    ],
    [
      257,
      215
    ],
    [
      147,
      497
    ],
    [
      153,
      1493
    ],
    [
      431,
      336
    ],
    [
      145,
      487
    ],
    [
      636,
      400
    ],
    [
      539,
      272
    ],
    [
      366,
      207
    ],
    [
      1593,
      250
    ],
    [
      222,
      157
    ],
    [
      937,
      885
    ],
    [
      227,
      138
    ],
    [
      229,
      856
    ],
    [
      119,
      884
    ],
    [
      584,
      752
    ],
    [
      457,
      19
    ],
    [
      138,
      146
    ],
    [
      222,
      133
    ],
    [
      1,
      1098
    ],
    [
      240,
      156
    ],
    [
      549,
      1376
    ],
    [
      813,
      319
    ],
    [
      164,
      122
    ],
    [
      153,
      206
    ],
    [
      153,
      369
    ],
    [
      225,
      203
    ],
    [
      534,
      847
    ],
    [
      154,
      559
    ],
    [
      141,
      528
    ],
    [
      236,
      138
    ],
    [
      138,
      575
    ],
    [
      873,
      885
    ],
    [
      128,
      146
    ],
    [
      489,
      208
    ],
    [
      422,
      160
    ],
    [
      163,
      291
    ],
    [
      133,
      233
    ],
    [
      258,
      1169
    ],
    [
      211,
      469
    ],
    [
      109,
      732
    ],
    [
      151,
      559
    ],
    [
      957,
      304
    ],
    [
      404,
      750
    ],
    [
      1027,
      290
    ],
    [
      717,
      166
    ],
    [
      657,
      147
    ],
    [
      242,
      1133
    ],
    [
      122,
      730
    ],
    [
      431,
      145
    ],
    [
      145,
      207
    ],
    [
      231,
      454
    ],
    [
      585,
      403
    ],
    [
      220,
      167
    ],
    [
      150,
      146
    ],
    [
      124,
      157
    ],
    [
      122,
      157
    ],
    [
      125,
      1153
    ],
    [
      255,
      413
    ],
    [
      255,
      632
    ],
    [
      351,
      961
    ],
    [
      256,
      950
    ],
    [
      404,
      933
    ],
    [
      116,
      275
    ],
    [
      800,
      122
    ],
    [
      236,
      379
    ],
    [
      156,
      278
    ],
    [
      151,
      159
    ],
    [
      122,
      160
    ],
    [
      800,
      139
    ],
    [
      240,
      327
    ],
    [
      203,
      393
    ],
    [
      122,
      163
    ],
    [
      301,
      469
    ],
    [
      154,
      246
    ],
    [
      306,
      1380
    ],
    [
      111,
      400
    ],
    [
      229,
      458
    ],
    [
      150,
      159
    ],
    [
      149,
      199
    ],
    [
      222,
      299
    ],
    [
      368,
      1002
    ],
    [
      126,
      147
    ],
    [
      365,
      159
    ],
    [
      707,
      487
    ],
    [
      1,
      213
    ],
    [
      154,
      345
    ],
    [
      140,
      206
    ],
    [
      189,
      196
    ],
    [
      907,
      122
    ],
    [
      464,
      273
    ],
    [
      128,
      587
    ],
    [
      300,
      167
    ],
    [
      437,
      291
    ],
    [
      689,
      815
    ],
    [
      236,
      147
    ],
    [
      145,
      233
    ],
    [
      674,
      138
    ],
    [
      306,
      147
    ],
    [
      150,
      502
    ],
    [
      410,
      936
    ],
    [
      519,
      1259
    ],
    [
      723,
      576
    ],
    [
      1,
      21
    ],
    [
      409,
      242
    ],
    [
      164,
      140
    ],
    [
      1489,
      474
    ],
    [
      1021,
      233
    ],
    [
      162,
      275
    ],
    [
      805,
      1287
    ],
    [
      166,
      154
    ],
    [
      18,
      19
    ],
    [
      154,
      419
    ],
    [
      227,
      168
    ],
    [
      211,
      567
    ],
    [
      248,
      124
    ],
    [
      143,
      219
    ],
    [
      211,
      1230
    ],
    [
      138,
      369
    ],
    [
      220,
      1369
    ],
    [
      355,
      272
    ],
    [
      227,
      157
    ],
    [
      659,
      1331
    ],
    [
      252,
      670
    ],
    [
      277,
      415
    ],
    [
      195,
      143
    ],
    [
      240,
      820
    ],
    [
      231,
      163
    ],
    [
      215,
      141
    ],
    [
      692,
      363
    ],
    [
      917,
      234
    ],
    [
      1425,
      124
    ],
    [
      145,
      199
    ],
    [
      151,
      158
    ],
    [
      147,
      162
    ],
    [
      488,
      160
    ],
    [
      140,
      681
    ],
    [
      133,
      162
    ],
    [
      280,
      529
    ],
    [
      153,
      204
    ],
    [
      225,
      205
    ],
    [
      254,
      200
    ],
    [
      439,
      141
    ],
    [
      162,
      666
    ],
    [
      284,
      490
    ],
    [
      257,
      643
    ],
    [
      230,
      345
    ],
    [
      188,
      435
    ],
    [
      211,
      447
    ],
    [
      165,
      209
    ],
    [
      941,
      498
    ],
    [
      855,
      319
    ],
    [
      140,
      131
    ],
    [
      664,
      264
    ],
    [
      198,
      695
    ],
    [
      145,
      730
    ],
    [
      453,
      361
    ],
    [
      1364,
      196
    ],
    [
      148,
      258
    ],
    [
      143,
      138
    ],
    [
      347,
      159
    ],
    [
      149,
      150
    ],
    [
      614,
      136
    ],
    [
      941,
      1183
    ],
    [
      486,
      673
    ],
    [
      200,
      1
    ],
    [
      145,
      576
    ],
    [
      146,
      140
    ],
    [
      245,
      110
    ],
    [
      201,
      243
    ],
    [
      401,
      221
    ],
    [
      230,
      145
    ],
    [
      257,
      1205
    ],
    [
      830,
      226
    ],
    [
      126,
      148
    ],
    [
      254,
      146
    ],
    [
      164,
      153
    ],
    [
      210,
      163
    ],
    [
      232,
      655
    ],
    [
      284,
      139
    ],
    [
      113,
      535
    ],
    [
      385,
      298
    ],
    [
      614,
      1185
    ],
    [
      1406,
      484
    ],
    [
      473,
      304
    ],
    [
      263,
      210
    ],
    [
      117,
      718
    ],
    [
      128,
      204
    ],
    [
      381,
      283
    ],
    [
      368,
      145
    ],
    [
      231,
      275
    ],
    [
      111,
      279
    ],
    [
      267,
      158
    ],
    [
      506,
      270
    ],
    [
      136,
      133
    ],
    [
      216,
      496
    ],
    [
      252,
      1128
    ],
    [
      159,
      140
    ],
    [
      230,
      503
    ],
    [
      323,
      294
    ],
    [
      494,
      1627
    ],
    [
      110,
      122
    ],
    [
      156,
      554
    ],
    [
      14,
      14
    ],
    [
      300,
      166
    ],
    [
      290,
      168
    ],
    [
      659,
      157
    ],
    [
      166,
      203
    ],
    [
      803,
      166
    ],
    [
      231,
      960
    ],
    [
      232,
      234
    ],
    [
      428,
      1711
    ],
    [
      746,
      195
    ],
    [
      20,
      17
    ],
    [
      1105,
      199
    ],
    [
      952,
      198
    ],
    [
      618,
      1001
    ],
    [
      347,
      1294
    ],
    [
      230,
      141
    ],
    [
      280,
      765
    ],
    [
      785,
      221
    ],
    [
      232,
      1314
    ],
    [
      148,
      289
    ],
    [
      1092,
      146
    ],
    [
      355,
      133
    ],
    [
      236,
      288
    ],
    [
      347,
      296
    ],
    [
      676,
      124
    ],
    [
      166,
      214
    ],
    [
      138,
      662
    ],
    [
      509,
      148
    ],
    [
      109,
      207
    ],
    [
      122,
      869
    ],
    [
      128,
      165
    ],
    [
      159,
      1471
    ],
    [
      389,
      1821
    ],
    [
      459,
      265
    ],
    [
      267,
      290
    ],
    [
      216,
      154
    ],
    [
      1079,
      273
    ],
    [
      227,
      997
    ],
    [
      119,
      209
    ],
    [
      1,
      1030
    ],
    [
      293,
      198
    ],
    [
      1028,
      1126
    ],
    [
      179,
      179
    ],
    [
      1077,
      288
    ],
    [
      107,
      345
    ],
    [
      406,
      368
    ],
    [
      197,
      356
    ],
    [
      1321,
      363
    ],
    [
      1001,
      140
    ],
    [
      387,
      123
    ],
    [
      277,
      902
    ],
    [
      163,
      146
    ],
    [
      126,
      1107
    ],
    [
      1024,
      750
    ],
    [
      157,
      979
    ],
    [
      220,
      460
    ],
    [
      128,
      218
    ],
    [
      280,
      369
    ],
    [
      158,
      140
    ],
    [
      581,
      152
    ],
    [
      120,
      138
    ],
    [
      202,
      594
    ],
    [
      358,
      210
    ],
    [
      1672,
      609
    ],
    [
      151,
      146
    ],
    [
      410,
      149
    ],
    [
      111,
      207
    ],
    [
      256,
      1071
    ],
    [
      18,
      21
    ],
    [
      1393,
      985
    ],
    [
      669,
      1037
    ],
    [
      420,
      149
    ],
    [
      355,
      118
    ],
    [
      354,
      136
    ],
    [
      298,
      239
    ],
    [
      237,
      166
    ],
    [
      256,
      375
    ],
    [
      768,
      508
    ],
    [
      131,
      162
    ],
    [
      684,
      146
    ],
    [
      250,
      754
    ],
    [
      216,
      247
    ],
    [
      208,
      157
    ],
    [
      141,
      1473
    ],
    [
      258,
      122
    ],
    [
      855,
      1272
    ],
    [
      1568,
      874
    ],
    [
      1545,
      1301
    ],
    [
      153,
      725
    ],
    [
      283,
      613
    ],
    [
      397,
      415
    ],
    [
      295,
      1780
    ],
    [
      227,
      265
    ],
    [
      179,
      1409
    ],
    [
      245,
      136
    ],
    [
      141,
      259
    ],
    [
      891,
      126
    ],
    [
      1214,
      145
    ],
    [
      325,
      335
    ],
    [
      280,
      168
    ],
    [
      13,
      236
    ],
    [
      150,
      199
    ],
    [
      727,
      124
    ],
    [
      143,
      159
    ],
    [
      387,
      1166
    ],
    [
      538,
      135
    ],
    [
      220,
      1219
    ],
    [
      208,
      154
    ],
    [
      216,
      162
    ],
    [
      145,
      429
    ],
    [
      751,
      135
    ],
    [
      1263,
      122
    ],
    [
      111,
      1009
    ],
    [
      213,
      467
    ],
    [
      353,
      852
    ],
    [
      215,
      238
    ],
    [
      1443,
      1798
    ],
    [
      1697,
      145
    ],
    [
      368,
      15
    ],
    [
      652,
      413
    ],
    [
      243,
      562
    ],
    [
      144,
      208
    ],
    [
      230,
      147
    ],
    [
      716,
      166
    ],
    [
      569,
      156
    ],
    [
      699,
      128
    ],
    [
      145,
      154
    ],
    [
      238,
      1363
    ],
    [
      1864,
      224
    ],
    [
      153,
      148
    ],
    [
      225,
      166
    ],
    [
      230,
      498
    ],
    [
      256,
      225
    ],
    [
      215,
      214
    ],
    [
      140,
      383
    ],
    [
      254,
      149
    ],
    [
      231,
      210
    ],
    [
      216,
      558
    ],
    [
      671,
      138
    ],
    [
      237,
      250
    ],
    [
      234,
      160
    ],
    [
      627,
      339
    ],
    [
      159,
      479
    ],
    [
      263,
      629
    ],
    [
      110,
      1343
    ],
    [
      1676,
      260
    ],
    [
      248,
      210
    ],
    [
      720,
      265
    ],
    [
      300,
      135
    ],
    [
      457,
      22
    ],
    [
      684,
      550
    ],
    [
      1546,
      304
    ],
    [
      216,
      336
    ],
    [
      248,
      252
    ],
    [
      353,
      126
    ],
    [
      109,
      228
    ],
    [
      1337,
      198
    ],
    [
      488,
      195
    ],
    [
      296,
      122
    ],
    [
      348,
      867
    ],
    [
      240,
      856
    ],
    [
      141,
      414
    ],
    [
      571,
      239
    ],
    [
      145,
      138
    ],
    [
      136,
      1726
    ],
    [
      2048,
      190
    ],
    [
      267,
      1311
    ],
    [
      372,
      1542
    ],
    [
      312,
      335
    ],
    [
      833,
      195
    ],
    [
      342,
      792
    ],
    [
      159,
      866
    ],
    [
      140,
      205
    ],
    [
      208,
      198
    ],
    [
      280,
      1008
    ],
    [
      1551,
      304
    ],
    [
      256,
      1385
    ],
    [
      234,
      135
    ],
    [
      119,
      1486
    ],
    [
      240,
      145
    ],
    [
      211,
      321
    ],
    [
      572,
      249
    ],
    [
      895,
      1016
    ],
    [
      231,
      260
    ],
    [
      215,
      150
    ],
    [
      165,
      272
    ],
    [
      727,
      1089
    ],
    [
      126,
      609
    ],
    [
      373,
      229
    ],
    [
      1,
      185
    ],
    [
      317,
      136
    ],
    [
      1043,
      401
    ],
    [
      231,
      801
    ],
    [
      1104,
      867
    ],
    [
      211,
      631
    ],
    [
      257,
      639
    ],
    [
      136,
      207
    ],
    [
      305,
      870
    ],
    [
      883,
      533
    ],
    [
      331,
      1501
    ],
    [
      863,
      650
    ],
    [
      158,
      133
    ],
    [
      1689,
      141
    ],
    [
      314,
      166
    ],
    [
      200,
      393
    ],
    [
      163,
      131
    ],
    [
      340,
      202
    ],
    [
      216,
      576
    ],
    [
      546,
      1129
    ],
    [
      537,
      500
    ],
    [
      465,
      289
    ],
    [
      1307,
      624
    ],
    [
      489,
      157
    ],
    [
      141,
      578
    ],
    [
      151,
      312
    ],
    [
      143,
      622
    ],
    [
      549,
      135
    ],
    [
      112,
      222
    ],
    [
      138,
      257
    ],
    [
      159,
      224
    ],
    [
      162,
      207
    ],
    [
      1296,
      221
    ],
    [
      236,
      148
    ],
    [
      136,
      247
    ],
    [
      431,
      139
    ],
    [
      440,
      266
    ],
    [
      116,
      1881
    ],
    [
      153,
      205
    ],
    [
      211,
      413
    ],
    [
      267,
      1071
    ],
    [
      126,
      363
    ],
    [
      455,
      1569
    ],
    [
      1,
      188
    ],
    [
      227,
      1510
    ],
    [
      342,
      239
    ],
    [
      584,
      557
    ],
    [
      220,
      343
    ],
    [
      145,
      160
    ],
    [
      140,
      405
    ],
    [
      107,
      333
    ],
    [
      277,
      668
    ],
    [
      236,
      204
    ],
    [
      1225,
      195
    ],
    [
      300,
      260
    ],
    [
      18,
      22
    ],
    [
      145,
      354
    ],
    [
      277,
      147
    ],
    [
      763,
      408
    ],
    [
      794,
      309
    ],
    [
      8,
      435
    ],
    [
      154,
      166
    ],
    [
      235,
      731
    ],
    [
      153,
      138
    ],
    [
      213,
      502
    ],
    [
      1,
      1049
    ],
    [
      672,
      133
    ],
    [
      642,
      1177
    ],
    [
      133,
      337
    ],
    [
      113,
      637
    ],
    [
      196,
      392
    ],
    [
      144,
      146
    ],
    [
      677,
      150
    ],
    [
      222,
      869
    ],
    [
      164,
      148
    ],
    [
      231,
      206
    ],
    [
      119,
      1511
    ],
    [
      138,
      204
    ],
    [
      254,
      390
    ],
    [
      300,
      485
    ],
    [
      283,
      154
    ],
    [
      769,
      156
    ],
    [
      639,
      156
    ],
    [
      2226,
      670
    ],
    [
      218,
      246
    ],
    [
      206,
      632
    ],
    [
      73,
      65
    ],
    [
      213,
      205
    ],
    [
      486,
      1064
    ],
    [
      1695,
      514
    ],
    [
      397,
      207
    ],
    [
      284,
      706
    ],
    [
      1040,
      1750
    ],
    [
      153,
      345
    ],
    [
      563,
      201
    ],
    [
      146,
      239
    ],
    [
      287,
      168
    ],
    [
      277,
      488
    ],
    [
      310,
      180
    ],
    [
      128,
      1112
    ],
    [
      240,
      1237
    ],
    [
      264,
      329
    ],
    [
      389,
      254
    ],
    [
      116,
      203
    ],
    [
      240,
      369
    ],
    [
      220,
      166
    ],
    [
      1467,
      149
    ],
    [
      138,
      229
    ],
    [
      320,
      628
    ],
    [
      248,
      145
    ],
    [
      559,
      124
    ],
    [
      144,
      204
    ],
    [
      850,
      221
    ],
    [
      256,
      390
    ],
    [
      145,
      122
    ],
    [
      306,
      521
    ],
    [
      1100,
      214
    ],
    [
      308,
      168
    ],
    [
      237,
      242
    ],
    [
      206,
      413
    ],
    [
      1,
      23
    ],
    [
      122,
      260
    ],
    [
      222,
      260
    ],
    [
      546,
      439
    ],
    [
      727,
      224
    ],
    [
      153,
      158
    ],
    [
      145,
      262
    ],
    [
      241,
      208
    ],
    [
      891,
      523
    ],
    [
      140,
      224
    ],
    [
      274,
      435
    ],
    [
      894,
      210
    ],
    [
      423,
      926
    ],
    [
      109,
      527
    ],
    [
      110,
      1205
    ],
    [
      519,
      1644
    ],
    [
      700,
      266
    ],
    [
      128,
      198
    ],
    [
      253,
      807
    ],
    [
      212,
      146
    ],
    [
      995,
      199
    ],
    [
      281,
      154
    ],
    [
      223,
      152
    ],
    [
      153,
      166
    ],
    [
      213,
      210
    ],
    [
      346,
      205
    ],
    [
      284,
      935
    ],
    [
      112,
      736
    ],
    [
      152,
      139
    ],
    [
      167,
      148
    ],
    [
      164,
      138
    ],
    [
      143,
      1478
    ],
    [
      150,
      1455
    ],
    [
      503,
      218
    ],
    [
      197,
      392
    ],
    [
      1100,
      1674
    ],
    [
      157,
      200
    ],
    [
      848,
      200
    ],
    [
      136,
      569
    ],
    [
      457,
      17
    ],
    [
      347,
      163
    ],
    [
      223,
      15
    ],
    [
      1460,
      168
    ],
    [
      203,
      1806
    ],
    [
      237,
      1342
    ],
    [
      220,
      296
    ],
    [
      110,
      749
    ],
    [
      141,
      997
    ],
    [
      156,
      470
    ],
    [
      660,
      122
    ],
    [
      145,
      272
    ],
    [
      687,
      140
    ],
    [
      159,
      613
    ],
    [
      516,
      138
    ],
    [
      150,
      148
    ],
    [
      252,
      1525
    ],
    [
      1817,
      140
    ],
    [
      400,
      180
    ],
    [
      323,
      753
    ],
    [
      1717,
      711
    ],
    [
      128,
      206
    ],
    [
      350,
      160
    ],
    [
      109,
      964
    ],
    [
      388,
      197
    ],
    [
      230,
      959
    ],
    [
      230,
      779
    ],
    [
      390,
      122
    ],
    [
      281,
      390
    ],
    [
      519,
      552
    ],
    [
      159,
      666
    ],
    [
      136,
      505
    ],
    [
      232,
      338
    ],
    [
      877,
      821
    ],
    [
      721,
      1344
    ],
    [
      1,
      27
    ],
    [
      211,
      733
    ],
    [
      128,
      809
    ],
    [
      143,
      577
    ],
    [
      431,
      107
    ],
    [
      1317,
      1609
    ],
    [
      145,
      135
    ],
    [
      440,
      229
    ],
    [
      199,
      407
    ],
    [
      1066,
      765
    ],
    [
      263,
      107
    ],
    [
      140,
      335
    ],
    [
      232,
      698
    ],
    [
      563,
      149
    ],
    [
      1280,
      1692
    ],
    [
      232,
      136
    ],
    [
      267,
      1276
    ],
    [
      140,
      150
    ],
    [
      1122,
      388
    ],
    [
      252,
      285
    ],
    [
      584,
      787
    ],
    [
      215,
      124
    ],
    [
      302,
      180
    ],
    [
      133,
      163
    ],
    [
      912,
      291
    ],
    [
      374,
      1322
    ],
    [
      849,
      206
    ],
    [
      2364,
      1127
    ],
    [
      485,
      150
    ],
    [
      255,
      600
    ],
    [
      341,
      160
    ],
    [
      125,
      208
    ],
    [
      259,
      508
    ],
    [
      124,
      366
    ],
    [
      162,
      1797
    ],
    [
      615,
      138
    ],
    [
      138,
      445
    ],
    [
      21,
      17
    ],
    [
      209,
      244
    ],
    [
      216,
      164
    ],
    [
      384,
      453
    ],
    [
      642,
      1523
    ],
    [
      111,
      362
    ],
    [
      1,
      24
    ],
    [
      1793,
      122
    ],
    [
      845,
      961
    ],
    [
      111,
      412
    ],
    [
      135,
      343
    ],
    [
      368,
      196
    ],
    [
      1751,
      378
    ],
    [
      143,
      205
    ],
    [
      147,
      126
    ],
    [
      1211,
      1172
    ],
    [
      1011,
      750
    ],
    [
      111,
      316
    ],
    [
      1,
      25
    ],
    [
      453,
      890
    ],
    [
      440,
      321
    ],
    [
      18,
      24
    ],
    [
      588,
      249
    ],
    [
      133,
      583
    ],
    [
      342,
      951
    ],
    [
      200,
      378
    ],
    [
      683,
      569
    ],
    [
      206,
      157
    ],
    [
      122,
      287
    ],
    [
      431,
      258
    ],
    [
      654,
      304
    ],
    [
      135,
      226
    ],
    [
      203,
      153
    ],
    [
      256,
      403
    ],
    [
      516,
      273
    ],
    [
      147,
      214
    ],
    [
      206,
      513
    ],
    [
      213,
      513
    ],
    [
      345,
      288
    ],
    [
      672,
      1298
    ],
    [
      232,
      905
    ],
    [
      214,
      295
    ],
    [
      1725,
      1681
    ],
    [
      199,
      565
    ],
    [
      150,
      288
    ],
    [
      1668,
      154
    ],
    [
      207,
      168
    ],
    [
      150,
      151
    ],
    [
      124,
      1779
    ],
    [
      284,
      234
    ],
    [
      397,
      362
    ],
    [
      140,
      124
    ],
    [
      791,
      1861
    ],
    [
      147,
      679
    ],
    [
      592,
      1396
    ],
    [
      153,
      343
    ],
    [
      411,
      435
    ],
    [
      136,
      195
    ],
    [
      150,
      198
    ],
    [
      159,
      232
    ],
    [
      430,
      301
    ],
    [
      575,
      544
    ],
    [
      349,
      276
    ],
    [
      156,
      265
    ],
    [
      404,
      1816
    ],
    [
      238,
      740
    ],
    [
      817,
      1355
    ],
    [
      627,
      936
    ],
    [
      131,
      239
    ],
    [
      128,
      158
    ],
    [
      222,
      272
    ],
    [
      139,
      363
    ],
    [
      138,
      462
    ],
    [
      206,
      289
    ],
    [
      163,
      136
    ],
    [
      1134,
      1367
    ],
    [
      1010,
      1324
    ],
    [
      854,
      514
    ],
    [
      1537,
      977
    ],
    [
      110,
      131
    ],
    [
      477,
      226
    ],
    [
      350,
      259
    ],
    [
      336,
      1919
    ],
    [
      1746,
      429
    ],
    [
      143,
      617
    ],
    [
      1576,
      122
    ],
    [
      233,
      405
    ],
    [
      434,
      195
    ],
    [
      363,
      147
    ],
    [
      158,
      324
    ],
    [
      162,
      635
    ],
    [
      592,
      557
    ],
    [
      297,
      212
    ],
    [
      770,
      1055
    ],
    [
      121,
      2292
    ],
    [
      824,
      234
    ],
    [
      227,
      492
    ],
    [
      199,
      116
    ],
    [
      281,
      297
    ],
    [
      145,
      223
    ],
    [
      443,
      285
    ],
    [
      230,
      693
    ],
    [
      346,
      715
    ],
    [
      248,
      139
    ],
    [
      277,
      595
    ],
    [
      200,
      214
    ],
    [
      347,
      559
    ],
    [
      478,
      229
    ],
    [
      136,
      246
    ],
    [
      342,
      452
    ],
    [
      342,
      163
    ],
    [
      322,
      264
    ],
    [
      283,
      930
    ],
    [
      489,
      158
    ],
    [
      150,
      166
    ],
    [
      601,
      145
    ],
    [
      1590,
      948
    ],
    [
      1058,
      198
    ],
    [
      152,
      163
    ],
    [
      252,
      291
    ],
    [
      163,
      138
    ],
    [
      423,
      1597
    ],
    [
      126,
      441
    ],
    [
      203,
      245
    ],
    [
      264,
      565
    ],
    [
      1,
      187
    ],
    [
      212,
      153
    ],
    [
      214,
      388
    ],
    [
      243,
      124
    ],
    [
      1075,
      266
    ],
    [
      344,
      148
    ],
    [
      153,
      460
    ],
    [
      206,
      148
    ],
    [
      465,
      229
    ],
    [
      148,
      294
    ],
    [
      233,
      147
    ],
    [
      581,
      124
    ],
    [
      358,
      128
    ],
    [
      143,
      251
    ],
    [
      241,
      260
    ],
    [
      1031,
      154
    ],
    [
      156,
      139
    ],
    [
      1411,
      224
    ],
    [
      163,
      839
    ],
    [
      357,
      139
    ],
    [
      603,
      697
    ],
    [
      196,
      109
    ],
    [
      272,
      861
    ],
    [
      156,
      276
    ],
    [
      683,
      279
    ],
    [
      330,
      472
    ],
    [
      1517,
      876
    ],
    [
      357,
      154
    ],
    [
      117,
      839
    ],
    [
      353,
      460
    ],
    [
      141,
      160
    ],
    [
      744,
      116
    ],
    [
      291,
      232
    ],
    [
      154,
      165
    ],
    [
      2443,
      131
    ],
    [
      598,
      1739
    ],
    [
      132,
      156
    ],
    [
      136,
      1061
    ],
    [
      159,
      929
    ],
    [
      117,
      541
    ],
    [
      110,
      1457
    ],
    [
      281,
      204
    ],
    [
      141,
      287
    ],
    [
      1000,
      363
    ],
    [
      409,
      981
    ],
    [
      771,
      1170
    ],
    [
      162,
      140
    ],
    [
      151,
      735
    ],
    [
      323,
      159
    ],
    [
      1035,
      747
    ],
    [
      216,
      246
    ],
    [
      1043,
      375
    ],
    [
      2000,
      710
    ],
    [
      156,
      250
    ],
    [
      143,
      433
    ],
    [
      763,
      637
    ],
    [
      143,
      330
    ],
    [
      537,
      205
    ],
    [
      1663,
      783
    ],
    [
      138,
      777
    ],
    [
      642,
      639
    ],
    [
      123,
      147
    ],
    [
      255,
      327
    ],
    [
      1638,
      258
    ],
    [
      1,
      645
    ],
    [
      220,
      1051
    ],
    [
      203,
      328
    ],
    [
      1090,
      715
    ],
    [
      1007,
      471
    ],
    [
      19,
      501
    ],
    [
      149,
      156
    ],
    [
      277,
      505
    ],
    [
      145,
      2227
    ],
    [
      347,
      2070
    ],
    [
      1801,
      2297
    ],
    [
      209,
      266
    ],
    [
      132,
      1169
    ],
    [
      349,
      447
    ],
    [
      112,
      1102
    ],
    [
      238,
      203
    ],
    [
      541,
      291
    ],
    [
      455,
      569
    ],
    [
      560,
      270
    ],
    [
      230,
      278
    ],
    [
      136,
      161
    ],
    [
      209,
      349
    ],
    [
      346,
      210
    ],
    [
      152,
      203
    ],
    [
      153,
      420
    ],
    [
      349,
      733
    ],
    [
      1630,
      291
    ],
    [
      509,
      1960
    ],
    [
      196,
      356
    ],
    [
      157,
      243
    ],
    [
      1238,
      1185
    ],
    [
      2494,
      2025
    ],
    [
      342,
      294
    ],
    [
      222,
      247
    ],
    [
      238,
      248
    ],
    [
      306,
      362
    ],
    [
      326,
      221
    ],
    [
      430,
      229
    ],
    [
      222,
      148
    ],
    [
      143,
      1602
    ],
    [
      159,
      1295
    ],
    [
      148,
      638
    ],
    [
      150,
      250
    ],
    [
      2098,
      1275
    ],
    [
      140,
      823
    ],
    [
      248,
      200
    ],
    [
      147,
      309
    ],
    [
      789,
      1422
    ],
    [
      858,
      199
    ],
    [
      459,
      703
    ],
    [
      325,
      799
    ],
    [
      314,
      126
    ],
    [
      340,
      240
    ],
    [
      213,
      343
    ],
    [
      234,
      1499
    ],
    [
      788,
      1259
    ],
    [
      141,
      294
    ],
    [
      323,
      1025
    ],
    [
      868,
      639
    ],
    [
      236,
      166
    ],
    [
      337,
      442
    ],
    [
      2261,
      130
    ],
    [
      236,
      617
    ],
    [
      223,
      449
    ],
    [
      1834,
      508
    ],
    [
      239,
      741
    ],
    [
      542,
      135
    ],
    [
      458,
      160
    ],
    [
      216,
      136
    ],
    [
      111,
      247
    ],
    [
      2529,
      145
    ],
    [
      232,
      935
    ],
    [
      153,
      239
    ],
    [
      517,
      2126
    ],
    [
      231,
      164
    ],
    [
      568,
      797
    ],
    [
      585,
      145
    ],
    [
      146,
      523
    ],
    [
      2641,
      233
    ],
    [
      140,
      215
    ],
    [
      385,
      430
    ],
    [
      110,
      540
    ],
    [
      185,
      185
    ],
    [
      647,
      272
    ],
    [
      1282,
      250
    ],
    [
      160,
      131
    ],
    [
      592,
      1246
    ],
    [
      213,
      160
    ],
    [
      417,
      568
    ],
    [
      1,
      1553
    ],
    [
      790,
      1044
    ],
    [
      158,
      243
    ],
    [
      227,
      528
    ],
    [
      253,
      724
    ],
    [
      225,
      316
    ],
    [
      138,
      1790
    ],
    [
      478,
      289
    ],
    [
      1,
      356
    ],
    [
      231,
      292
    ],
    [
      263,
      332
    ],
    [
      1622,
      1431
    ],
    [
      841,
      266
    ],
    [
      147,
      468
    ],
    [
      378,
      821
    ],
    [
      455,
      164
    ],
    [
      245,
      147
    ],
    [
      642,
      1705
    ],
    [
      256,
      1614
    ],
    [
      139,
      297
    ],
    [
      1312,
      279
    ],
    [
      1885,
      2369
    ],
    [
      166,
      135
    ],
    [
      2466,
      204
    ],
    [
      721,
      260
    ],
    [
      409,
      400
    ],
    [
      153,
      296
    ],
    [
      211,
      504
    ],
    [
      153,
      238
    ],
    [
      344,
      1752
    ],
    [
      151,
      951
    ],
    [
      153,
      207
    ],
    [
      222,
      677
    ],
    [
      2222,
      150
    ],
    [
      136,
      122
    ],
    [
      330,
      239
    ],
    [
      1161,
      385
    ],
    [
      1325,
      352
    ],
    [
      709,
      1170
    ],
    [
      308,
      162
    ],
    [
      1,
      370
    ],
    [
      1390,
      139
    ],
    [
      255,
      229
    ],
    [
      1907,
      653
    ],
    [
      490,
      150
    ],
    [
      314,
      162
    ],
    [
      344,
      1107
    ],
    [
      223,
      13
    ],
    [
      117,
      916
    ],
    [
      865,
      128
    ],
    [
      146,
      200
    ],
    [
      459,
      1363
    ],
    [
      773,
      1564
    ],
    [
      253,
      780
    ],
    [
      140,
      164
    ],
    [
      281,
      162
    ],
    [
      410,
      932
    ],
    [
      109,
      503
    ],
    [
      1592,
      315
    ],
    [
      167,
      1045
    ],
    [
      344,
      1157
    ],
    [
      162,
      811
    ],
    [
      154,
      293
    ],
    [
      247,
      2090
    ],
    [
      431,
      1368
    ],
    [
      215,
      740
    ],
    [
      256,
      775
    ],
    [
      237,
      161
    ],
    [
      202,
      530
    ],
    [
      252,
      139
    ],
    [
      156,
      257
    ],
    [
      128,
      337
    ],
    [
      300,
      163
    ],
    [
      1,
      212
    ],
    [
      629,
      156
    ],
    [
      163,
      577
    ],
    [
      156,
      128
    ],
    [
      372,
      1234
    ],
    [
      222,
      570
    ],
    [
      239,
      250
    ],
    [
      157,
      285
    ],
    [
      1206,
      569
    ],
    [
      156,
      1567
    ],
    [
      154,
      395
    ],
    [
      314,
      390
    ],
    [
      778,
      160
    ],
    [
      142,
      208
    ],
    [
      2625,
      246
    ],
    [
      255,
      202
    ],
    [
      148,
      321
    ],
    [
      236,
      420
    ],
    [
      399,
      354
    ],
    [
      122,
      495
    ],
    [
      1782,
      337
    ],
    [
      222,
      147
    ],
    [
      273,
      109
    ],
    [
      1589,
      198
    ],
    [
      284,
      1137
    ],
    [
      308,
      157
    ],
    [
      440,
      160
    ],
    [
      167,
      133
    ],
    [
      145,
      609
    ],
    [
      200,
      338
    ],
    [
      656,
      527
    ],
    [
      133,
      124
    ],
    [
      165,
      1995
    ],
    [
      455,
      144
    ],
    [
      122,
      133
    ],
    [
      138,
      247
    ],
    [
      971,
      249
    ],
    [
      306,
      210
    ],
    [
      248,
      997
    ],
    [
      141,
      575
    ],
    [
      195,
      145
    ],
    [
      232,
      1742
    ],
    [
      340,
      239
    ],
    [
      1487,
      1645
    ],
    [
      255,
      469
    ],
    [
      423,
      1256
    ],
    [
      162,
      888
    ],
    [
      216,
      1613
    ],
    [
      161,
      134
    ],
    [
      1114,
      375
    ],
    [
      1694,
      1404
    ],
    [
      206,
      321
    ],
    [
      197,
      122
    ],
    [
      1340,
      307
    ],
    [
      601,
      2062
    ],
    [
      153,
      167
    ],
    [
      257,
      1457
    ],
    [
      1012,
      386
    ],
    [
      453,
      394
    ],
    [
      133,
      195
    ],
    [
      660,
      199
    ],
    [
      1,
      114
    ],
    [
      647,
      2212
    ],
    [
      141,
      199
    ],
    [
      214,
      1124
    ],
    [
      1451,
      156
    ],
    [
      397,
      209
    ],
    [
      199,
      695
    ],
    [
      459,
      278
    ],
    [
      283,
      1608
    ],
    [
      122,
      366
    ],
    [
      298,
      303
    ],
    [
      544,
      703
    ],
    [
      240,
      513
    ],
    [
      350,
      948
    ],
    [
      267,
      1273
    ],
    [
      123,
      2028
    ],
    [
      1528,
      198
    ],
    [
      516,
      819
    ],
    [
      222,
      477
    ],
    [
      840,
      289
    ],
    [
      123,
      1154
    ],
    [
      398,
      641
    ],
    [
      19,
      22
    ],
    [
      144,
      1247
    ],
    [
      140,
      334
    ],
    [
      440,
      632
    ],
    [
      729,
      292
    ],
    [
      957,
      2124
    ],
    [
      2294,
      252
    ],
    [
      424,
      147
    ],
    [
      863,
      1507
    ],
    [
      149,
      138
    ],
    [
      290,
      199
    ],
    [
      58,
      196
    ],
    [
      157,
      726
    ],
    [
      141,
      166
    ],
    [
      159,
      375
    ],
    [
      199,
      150
    ],
    [
      1599,
      624
    ],
    [
      255,
      1190
    ],
    [
      1398,
      1389
    ],
    [
      214,
      1800
    ],
    [
      1560,
      1560
    ],
    [
      240,
      853
    ],
    [
      661,
      122
    ],
    [
      1,
      26
    ],
    [
      147,
      153
    ],
    [
      300,
      1628
    ],
    [
      248,
      250
    ],
    [
      257,
      1343
    ],
    [
      23,
      17
    ],
    [
      517,
      319
    ],
    [
      1012,
      283
    ],
    [
      1,
      285
    ],
    [
      211,
      235
    ],
    [
      140,
      217
    ],
    [
      110,
      587
    ],
    [
      812,
      273
    ],
    [
      344,
      1115
    ],
    [
      163,
      135
    ],
    [
      109,
      279
    ],
    [
      409,
      2027
    ],
    [
      147,
      276
    ],
    [
      222,
      668
    ],
    [
      231,
      484
    ],
    [
      940,
      523
    ],
    [
      18,
      501
    ],
    [
      255,
      988
    ],
    [
      220,
      965
    ],
    [
      248,
      833
    ],
    [
      1442,
      133
    ],
    [
      126,
      2032
    ],
    [
      107,
      317
    ],
    [
      257,
      148
    ],
    [
      141,
      375
    ],
    [
      606,
      265
    ],
    [
      388,
      538
    ],
    [
      1063,
      298
    ],
    [
      277,
      159
    ],
    [
      1982,
      1645
    ],
    [
      374,
      204
    ],
    [
      1377,
      1085
    ],
    [
      443,
      152
    ],
    [
      381,
      418
    ],
    [
      2114,
      195
    ],
    [
      404,
      466
    ],
    [
      157,
      210
    ],
    [
      301,
      696
    ],
    [
      358,
      2522
    ],
    [
      231,
      166
    ],
    [
      136,
      385
    ],
    [
      145,
      1613
    ],
    [
      138,
      267
    ],
    [
      1,
      125
    ],
    [
      1167,
      241
    ],
    [
      372,
      535
    ],
    [
      656,
      144
    ],
    [
      409,
      784
    ],
    [
      257,
      749
    ],
    [
      747,
      1738
    ],
    [
      778,
      544
    ],
    [
      271,
      214
    ],
    [
      1,
      411
    ],
    [
      844,
      701
    ],
    [
      489,
      1845
    ],
    [
      122,
      352
    ],
    [
      231,
      633
    ],
    [
      896,
      1245
    ],
    [
      453,
      376
    ],
    [
      222,
      1941
    ],
    [
      153,
      150
    ],
    [
      220,
      1021
    ],
    [
      546,
      147
    ],
    [
      232,
      521
    ],
    [
      364,
      438
    ],
    [
      340,
      303
    ],
    [
      2064,
      198
    ],
    [
      136,
      160
    ],
    [
      636,
      212
    ],
    [
      1075,
      815
    ],
    [
      162,
      556
    ],
    [
      240,
      458
    ],
    [
      126,
      156
    ],
    [
      1693,
      198
    ],
    [
      253,
      1601
    ],
    [
      680,
      289
    ],
    [
      116,
      279
    ],
    [
      143,
      294
    ],
    [
      145,
      164
    ],
    [
      396,
      1678
    ],
    [
      220,
      345
    ],
    [
      149,
      198
    ],
    [
      816,
      309
    ],
    [
      236,
      214
    ],
    [
      323,
      579
    ],
    [
      1370,
      126
    ],
    [
      952,
      383
    ],
    [
      257,
      1573
    ],
    [
      377,
      335
    ],
    [
      1712,
      624
    ],
    [
      301,
      1466
    ],
    [
      135,
      157
    ],
    [
      143,
      200
    ],
    [
      308,
      296
    ],
    [
      1033,
      140
    ],
    [
      625,
      158
    ],
    [
      237,
      432
    ],
    [
      301,
      240
    ],
    [
      342,
      159
    ],
    [
      868,
      1523
    ],
    [
      229,
      217
    ],
    [
      109,
      921
    ],
    [
      277,
      156
    ],
    [
      1135,
      198
    ],
    [
      663,
      1128
    ],
    [
      389,
      568
    ],
    [
      154,
      578
    ],
    [
      236,
      647
    ],
    [
      136,
      956
    ],
    [
      300,
      1901
    ],
    [
      663,
      1525
    ],
    [
      1953,
      226
    ],
    [
      510,
      124
    ],
    [
      625,
      162
    ],
    [
      18,
      25
    ],
    [
      18,
      20
    ],
    [
      486,
      153
    ],
    [
      410,
      947
    ],
    [
      218,
      159
    ],
    [
      237,
      287
    ],
    [
      319,
      204
    ],
    [
      213,
      244
    ],
    [
      1591,
      626
    ],
    [
      162,
      1955
    ],
    [
      210,
      309
    ],
    [
      143,
      199
    ],
    [
      2596,
      1013
    ],
    [
      351,
      168
    ],
    [
      109,
      304
    ],
    [
      153,
      260
    ],
    [
      436,
      144
    ],
    [
      165,
      348
    ],
    [
      280,
      575
    ],
    [
      202,
      208
    ],
    [
      116,
      497
    ],
    [
      349,
      567
    ],
    [
      139,
      147
    ],
    [
      1600,
      973
    ],
    [
      144,
      617
    ],
    [
      242,
      206
    ],
    [
      1162,
      198
    ],
    [
      136,
      242
    ],
    [
      195,
      613
    ],
    [
      227,
      578
    ],
    [
      1400,
      599
    ],
    [
      280,
      965
    ],
    [
      143,
      166
    ],
    [
      1402,
      212
    ],
    [
      522,
      154
    ],
    [
      1814,
      352
    ],
    [
      205,
      701
    ],
    [
      875,
      2037
    ],
    [
      284,
      1314
    ],
    [
      256,
      1276
    ],
    [
      1193,
      626
    ],
    [
      258,
      145
    ],
    [
      1828,
      2863
    ],
    [
      1076,
      221
    ],
    [
      158,
      214
    ],
    [
      240,
      425
    ],
    [
      227,
      296
    ],
    [
      276,
      529
    ],
    [
      206,
      208
    ],
    [
      240,
      514
    ],
    [
      372,
      1729
    ],
    [
      460,
      210
    ],
    [
      1147,
      1210
    ],
    [
      168,
      150
    ],
    [
      1043,
      1359
    ],
    [
      143,
      215
    ],
    [
      138,
      634
    ],
    [
      2195,
      141
    ],
    [
      199,
      456
    ],
    [
      770,
      212
    ],
    [
      145,
      218
    ],
    [
      1353,
      158
    ],
    [
      357,
      258
    ],
    [
      326,
      418
    ],
    [
      529,
      217
    ],
    [
      243,
      726
    ],
    [
      227,
      204
    ],
    [
      1818,
      198
    ],
    [
      146,
      1114
    ],
    [
      122,
      1833
    ],
    [
      263,
      203
    ],
    [
      203,
      179
    ],
    [
      139,
      583
    ],
    [
      227,
      160
    ],
    [
      146,
      292
    ],
    [
      1,
      2532
    ],
    [
      746,
      309
    ],
    [
      486,
      608
    ],
    [
      137,
      168
    ],
    [
      141,
      203
    ],
    [
      508,
      695
    ],
    [
      255,
      580
[...]
